<pad>	0
<s>	0
</s>	0
<unk>	0
▁t	-0
he	-1
▁i	-2
▁a	-3
▁w	-4
▁s	-5
ou	-6
▁to	-7
re	-8
▁the	-9
▁m	-10
▁我	-11
in	-12
▁h	-13
▁y	-14
▁d	-15
▁b	-16
on	-17
▁you	-18
▁c	-19
ve	-20
at	-21
▁l	-22
▁f	-23
▁he	-24
an	-25
ing	-26
is	-27
▁th	-28
or	-29
▁p	-30
en	-31
er	-32
as	-33
ll	-34
▁g	-35
ed	-36
▁is	-37
ar	-38
▁n	-39
▁o	-40
es	-41
▁你	-42
▁他	-43
om	-44
ow	-45
▁in	-46
it	-47
ay	-48
ot	-49
▁do	-50
▁tom	-51
▁ha	-52
▁be	-53
▁of	-54
le	-55
ld	-56
汤姆	-57
ke	-58
▁it	-59
▁e	-60
▁we	-61
oo	-62
et	-63
▁wh	-64
us	-65
id	-66
▁me	-67
ic	-68
▁an	-69
▁she	-70
im	-71
ver	-72
▁li	-73
▁my	-74
▁st	-75
▁have	-76
▁was	-77
▁for	-78
▁on	-79
▁汤姆	-80
▁that	-81
▁她	-82
▁this	-83
gh	-84
▁r	-85
ch	-86
▁re	-87
ter	-88
ould	-89
ome	-90
her	-91
▁这	-92
▁go	-93
ad	-94
▁don	-95
▁can	-96
al	-97
▁k	-98
un	-99
▁at	-100
▁what	-101
▁ne	-102
▁are	-103
▁your	-104
ght	-105
ent	-106
ill	-107
st	-108
ant	-109
▁我们	-110
se	-111
▁not	-112
什么	-113
out	-114
▁sh	-115
very	-116
▁his	-117
▁as	-118
▁like	-119
ith	-120
am	-121
▁with	-122
▁did	-123
ook	-124
ri	-125
ion	-126
ut	-127
ly	-128
ac	-129
▁want	-130
▁kn	-131
▁se	-132
all	-133
▁her	-134
▁j	-135
ain	-136
ir	-137
▁him	-138
▁there	-139
▁know	-140
ak	-141
知道	-142
▁我不	-143
没有	-144
ake	-145
▁whe	-146
▁will	-147
ro	-148
up	-149
ight	-150
我的	-151
▁wor	-152
one	-153
▁en	-154
喜欢	-155
pe	-156
一个	-157
ood	-158
▁te	-159
ur	-160
ish	-161
▁ab	-162
▁ch	-163
day	-164
▁tr	-165
▁and	-166
▁has	-167
ce	-168
我们	-169
▁pl	-170
▁how	-171
▁us	-172
ore	-173
▁very	-174
ase	-175
▁tim	-176
ink	-177
ust	-178
th	-179
▁al	-180
ong	-181
ary	-182
▁they	-183
▁fr	-184
▁so	-185
▁no	-186
▁up	-187
▁all	-188
▁get	-189
end	-190
▁any	-191
▁time	-192
你的	-193
and	-194
ast	-195
pp	-196
▁ple	-197
▁had	-198
这个	-199
ard	-200
▁good	-201
ct	-202
ge	-203
▁un	-204
▁please	-205
oun	-206
▁here	-207
▁would	-208
▁think	-209
ul	-210
▁le	-211
▁see	-212
▁am	-213
▁by	-214
▁他们	-215
▁does	-216
▁let	-217
il	-218
ave	-219
▁from	-220
our	-221
▁out	-222
他的	-223
ap	-224
are	-225
op	-226
▁ex	-227
ame	-228
▁book	-229
▁should	-230
ry	-231
▁about	-232
ice	-233
qu	-234
ble	-235
ive	-236
ost	-237
▁man	-238
other	-239
est	-240
▁de	-241
ist	-242
ather	-243
▁su	-244
▁come	-245
▁some	-246
▁work	-247
▁请	-248
▁didn	-249
▁af	-250
gl	-251
if	-252
ays	-253
▁mary	-254
▁too	-255
▁我想	-256
▁car	-257
ud	-258
工作	-259
玛丽	-260
ation	-261
ate	-262
ind	-263
▁spe	-264
ool	-265
▁engl	-266
可以	-267
ren	-268
row	-269
▁ag	-270
▁every	-271
▁could	-272
alk	-273
ally	-274
▁going	-275
ss	-276
ree	-277
▁fe	-278
▁那	-279
▁look	-280
▁than	-281
▁cl	-282
▁home	-283
▁english	-284
aid	-285
▁who	-286
▁com	-287
▁ar	-288
▁co	-289
▁been	-290
不是	-291
der	-292
ck	-293
时候	-294
▁ro	-295
应该	-296
▁when	-297
▁sch	-298
▁got	-299
▁speak	-300
▁where	-301
ars	-302
ning	-303
▁school	-304
告诉	-305
▁ye	-306
▁take	-307
现在	-308
▁qu	-309
▁if	-310
▁lo	-311
▁stud	-312
今天	-313
▁br	-314
▁now	-315
▁one	-316
ep	-317
认为	-318
▁hel	-319
▁pro	-320
▁v	-321
ers	-322
▁par	-323
▁help	-324
red	-325
▁我的	-326
▁last	-327
▁were	-328
在这	-329
hing	-330
ie	-331
▁po	-332
▁int	-333
英语	-334
ack	-335
▁mad	-336
▁need	-337
fe	-338
怎么	-339
▁wr	-340
ess	-341
uch	-342
▁bet	-343
▁long	-344
了一	-345
ass	-346
ild	-347
▁day	-348
▁tw	-349
▁bus	-350
▁new	-351
▁much	-352
lf	-353
▁eat	-354
▁con	-355
▁wat	-356
orrow	-357
▁play	-358
ort	-359
▁made	-360
▁read	-361
▁doesn	-362
可能	-363
给我	-364
▁father	-365
▁ask	-366
ig	-367
ought	-368
▁tell	-369
需要	-370
▁bo	-371
ound	-372
ty	-373
▁live	-374
▁more	-375
问题	-376
el	-377
▁just	-378
▁pe	-379
▁pre	-380
▁tomorrow	-381
很多	-382
▁lot	-383
▁why	-384
itt	-385
ure	-386
ine	-387
ous	-388
▁but	-389
▁old	-390
▁after	-391
明天	-392
▁ac	-393
▁or	-394
ite	-395
omet	-396
▁happ	-397
非常	-398
hed	-399
▁sp	-400
▁back	-401
必须	-402
时间	-403
▁off	-404
mb	-405
▁wa	-406
▁这是	-407
ang	-408
▁child	-409
已经	-410
▁ho	-411
▁say	-412
▁yes	-413
▁went	-414
不要	-415
到了	-416
▁better	-417
▁may	-418
▁many	-419
昨天	-420
本书	-421
ople	-422
▁room	-423
▁people	-424
▁ten	-425
▁somet	-426
▁really	-427
是个	-428
▁ad	-429
▁bu	-430
▁ke	-431
ouse	-432
terday	-433
▁yesterday	-434
thing	-435
▁wait	-436
不会	-437
oney	-438
ving	-439
ways	-440
▁two	-441
riend	-442
▁money	-443
▁always	-444
xt	-445
孩子	-446
▁sw	-447
apan	-448
▁japan	-449
她的	-450
让我	-451
▁make	-452
▁today	-453
哪里	-454
ide	-455
urn	-456
▁our	-457
mp	-458
父亲	-459
rive	-460
self	-461
▁pr	-462
▁我在	-463
为什么	-464
ried	-465
▁won	-466
▁love	-467
▁night	-468
ick	-469
▁talk	-470
▁house	-471
lo	-472
▁must	-473
自己	-474
▁under	-475
任何	-476
有一	-477
▁bec	-478
的人	-479
own	-480
▁next	-481
▁friend	-482
aw	-483
▁years	-484
ount	-485
▁right	-486
▁three	-487
了吗	-488
▁我会	-489
ther	-490
▁put	-491
▁在	-492
他们	-493
希望	-494
朋友	-495
▁mother	-496
房间	-497
▁ear	-498
▁stay	-499
age	-500
fore	-501
▁bel	-502
▁again	-503
▁before	-504
ag	-505
▁这个	-506
▁never	-507
▁jo	-508
日本	-509
ven	-510
▁dr	-511
▁op	-512
▁dog	-513
▁gave	-514
▁give	-515
正在	-516
▁sm	-517
▁something	-518
一点	-519
不能	-520
ict	-521
ough	-522
au	-523
东西	-524
甚么	-525
▁rain	-526
▁well	-527
▁mo	-528
学校	-529
在这里	-530
▁call	-531
▁plan	-532
▁said	-533
真的	-534
▁isn	-535
▁mor	-536
▁有	-537
开始	-538
很好	-539
起来	-540
那里	-541
ity	-542
▁fl	-543
▁down	-544
▁walk	-545
▁morning	-546
ek	-547
ittle	-548
▁over	-549
▁little	-550
▁他的	-551
▁care	-552
▁hard	-553
▁told	-554
▁week	-555
▁study	-556
的时候	-557
▁asked	-558
▁still	-559
▁anything	-560
ts	-561
▁您	-562
如果	-563
use	-564
▁fin	-565
▁mar	-566
▁feel	-567
▁into	-568
▁late	-569
ach	-570
ies	-571
ire	-572
告诉我	-573
ress	-574
▁dif	-575
▁letter	-576
ft	-577
住在	-578
觉得	-579
▁你的	-580
mber	-581
▁sun	-582
▁comp	-583
▁children	-584
▁我不知道	-585
ab	-586
ue	-587
相信	-588
ied	-589
▁如果	-590
▁app	-591
▁soon	-592
▁leave	-593
▁brother	-594
的事	-595
ich	-596
akes	-597
▁swim	-598
▁train	-599
▁mon	-600
▁thing	-601
pt	-602
回来	-603
无法	-604
▁aw	-605
▁gu	-606
▁你能	-607
blem	-608
▁other	-609
▁problem	-610
每天	-611
那个	-612
ten	-613
▁bre	-614
▁way	-615
▁我认为	-616
▁door	-617
▁keep	-618
发生	-619
ieve	-620
▁believe	-621
▁别	-622
所有	-623
ace	-624
▁hand	-625
▁teac	-626
▁took	-627
▁watch	-628
dy	-629
总是	-630
想要	-631
火车	-632
离开	-633
▁gr	-634
▁buy	-635
房子	-636
fic	-637
ond	-638
▁acc	-639
▁rem	-640
rench	-641
▁list	-642
▁meet	-643
▁only	-644
▁used	-645
▁french	-646
▁underst	-647
做什么	-648
able	-649
▁cat	-650
▁你应该	-651
▁came	-652
bo	-653
de	-654
回家	-655
电话	-656
art	-657
ese	-658
ork	-659
▁str	-660
了我	-661
cle	-662
ult	-663
▁今天	-664
▁没有	-665
▁afr	-666
▁我喜欢	-667
▁cold	-668
▁left	-669
▁show	-670
▁often	-671
早上	-672
游泳	-673
irst	-674
rest	-675
▁exp	-676
▁mat	-677
▁wish	-678
▁teacher	-679
法语	-680
act	-681
ose	-682
ence	-683
▁use	-684
ished	-685
ister	-686
▁hour	-687
▁turn	-688
▁water	-689
去了	-690
小时	-691
是我	-692
ket	-693
▁你有	-694
ance	-695
▁open	-696
▁understand	-697
ol	-698
多少	-699
这里	-700
高兴	-701
iss	-702
ctor	-703
ired	-704
▁year	-705
▁bl	-706
▁我要	-707
▁我希望	-708
▁their	-709
▁afraid	-710
iz	-711
sp	-712
好的	-713
学习	-714
air	-715
ful	-716
▁不要	-717
▁你不	-718
▁boy	-719
▁gre	-720
▁imp	-721
estion	-722
▁bought	-723
一起	-724
以前	-725
说话	-726
ail	-727
get	-728
ting	-729
▁away	-730
▁first	-731
▁happen	-732
▁sunday	-733
▁wanted	-734
▁student	-735
▁fo	-736
不知道	-737
▁cle	-738
▁job	-739
▁lik	-740
▁vis	-741
什么时候	-742
▁find	-743
▁inte	-744
▁happy	-745
▁heard	-746
▁these	-747
▁arrive	-748
▁doctor	-749
▁question	-750
一次	-751
给你	-752
▁gl	-753
ated	-754
body	-755
▁pol	-756
▁busy	-757
▁done	-758
▁drink	-759
▁party	-760
▁把	-761
因为	-762
ise	-763
▁他在	-764
ause	-765
▁你可以	-766
▁mist	-767
▁count	-768
▁doing	-769
▁friends	-770
▁nothing	-771
leep	-772
▁dec	-773
▁fam	-774
▁saw	-775
▁sister	-776
gg	-777
os	-778
▁它	-779
一下	-780
医生	-781
许多	-782
那么	-783
igh	-784
ory	-785
在哪里	-786
▁big	-787
▁dis	-788
ember	-789
▁name	-790
▁stop	-791
▁found	-792
▁which	-793
▁listen	-794
▁station	-795
ng	-796
帮助	-797
星期	-798
昨晚	-799
美国	-800
ile	-801
▁sc	-802
了什么	-803
iver	-804
▁bed	-805
▁pass	-806
▁seem	-807
▁sure	-808
▁visit	-809
是谁	-810
ady	-811
aut	-812
▁你想	-813
▁我有	-814
不喜欢	-815
▁att	-816
▁pen	-817
▁我不想	-818
▁我知道	-819
▁best	-820
▁life	-821
▁lost	-822
▁pict	-823
▁month	-824
▁picture	-825
▁reading	-826
▁interest	-827
ix	-828
一直	-829
ath	-830
hes	-831
ily	-832
ner	-833
ull	-834
▁你们	-835
oston	-836
▁beaut	-837
▁boston	-838
▁diffic	-839
▁looking	-840
we	-841
决定	-842
士顿	-843
好吗	-844
网球	-845
cer	-846
nis	-847
▁我对	-848
波士顿	-849
▁che	-850
▁des	-851
▁eas	-852
▁hot	-853
▁min	-854
▁hear	-855
▁them	-856
▁drive	-857
▁around	-858
▁tennis	-859
▁remember	-860
一些	-861
了他	-862
学生	-863
就是	-864
母亲	-865
的话	-866
认识	-867
▁ph	-868
▁我很	-869
ange	-870
ment	-871
▁ago	-872
▁run	-873
aking	-874
▁ever	-875
▁books	-876
▁class	-877
▁wants	-878
▁finished	-879
ky	-880
no	-881
一样	-882
名字	-883
多久	-884
天气	-885
男孩	-886
ffe	-887
ian	-888
ually	-889
▁same	-890
▁break	-891
▁early	-892
▁wrong	-893
▁enough	-894
▁thought	-895
▁当	-896
成为	-897
这么	-898
ted	-899
▁你在	-900
▁ans	-901
▁try	-902
▁flow	-903
▁lear	-904
▁park	-905
▁pers	-906
▁likes	-907
▁young	-908
▁beautif	-909
▁because	-910
wn	-911
结婚	-912
老师	-913
▁sn	-914
ible	-915
lock	-916
▁beg	-917
▁bir	-918
ident	-919
▁seen	-920
▁married	-921
ok	-922
两个	-923
在家	-924
得很	-925
意思	-926
跟我	-927
augh	-928
▁ide	-929
▁sho	-930
▁cook	-931
▁sing	-932
▁knows	-933
▁minut	-934
▁beautiful	-935
ip	-936
出去	-937
到你	-938
参加	-939
音乐	-940
uth	-941
我们的	-942
▁adv	-943
▁pret	-944
▁person	-945
人都	-946
咖啡	-947
电影	-948
计划	-949
还是	-950
Tom	-951
wer	-952
了一个	-953
是我的	-954
eric	-955
ffee	-956
work	-957
▁yet	-958
▁miss	-959
▁tired	-960
▁americ	-961
▁coffee	-962
▁couldn	-963
▁someone	-964
00	-965
下雨	-966
不想	-967
妈妈	-968
最好	-969
gry	-970
这本书	-971
▁bot	-972
▁six	-973
▁sup	-974
▁goes	-975
▁wasn	-976
▁quite	-977
▁difficult	-978
做的	-979
几乎	-980
地方	-981
生活	-982
ect	-983
▁我没	-984
▁我能	-985
是一个	-986
▁gir	-987
▁res	-988
▁我父亲	-989
ready	-990
▁able	-991
▁days	-992
▁fire	-993
▁sleep	-994
▁police	-995
▁already	-996
▁getting	-997
▁japanese	-998
个月	-999
完成	-1000
很有	-1001
电视	-1002
看见	-1003
确定	-1004
记得	-1005
▁他有	-1006
让我们	-1007
ious	-1008
ital	-1009
most	-1010
▁bro	-1011
▁met	-1012
▁你知道	-1013
clock	-1014
▁food	-1015
▁hope	-1016
▁你为什么	-1017
▁truth	-1018
▁almost	-1019
▁meeting	-1020
上了	-1021
今晚	-1022
会议	-1023
园里	-1024
旅行	-1025
看看	-1026
ign	-1027
mer	-1028
uck	-1029
ater	-1030
▁lar	-1031
▁mov	-1032
▁我今天	-1033
▁汤姆在	-1034
▁once	-1035
▁tall	-1036
▁wind	-1037
▁arrived	-1038
▁weather	-1039
ub	-1040
um	-1041
分钟	-1042
发现	-1043
开车	-1044
很快	-1045
感到	-1046
的是	-1047
跟你	-1048
ark	-1049
▁这些	-1050
说英语	-1051
port	-1052
usic	-1053
▁far	-1054
▁hur	-1055
▁ton	-1056
▁cont	-1057
▁five	-1058
▁mind	-1059
▁being	-1060
▁music	-1061
▁thank	-1062
▁answer	-1063
▁things	-1064
▁playing	-1065
▁homework	-1066
av	-1067
oy	-1068
伦敦	-1069
如何	-1070
对我	-1071
建议	-1072
每个	-1073
派对	-1074
睡觉	-1075
苹果	-1076
说他	-1077
▁ey	-1078
▁你要	-1079
▁玛丽	-1080
看起来	-1081
angu	-1082
fast	-1083
▁air	-1084
▁fun	-1085
▁hun	-1086
▁lun	-1087
▁win	-1088
▁我现在	-1089
ondon	-1090
▁mean	-1091
▁nice	-1092
▁stre	-1093
▁hours	-1094
▁langu	-1095
▁place	-1096
▁london	-1097
▁tonight	-1098
▁breakfast	-1099
之前	-1100
准备	-1101
同意	-1102
帮我	-1103
走了	-1104
车站	-1105
les	-1106
▁他不	-1107
▁你是	-1108
pect	-1109
▁bad	-1110
▁bit	-1111
▁ele	-1112
▁few	-1113
▁war	-1114
▁fish	-1115
▁girl	-1116
▁idea	-1117
▁near	-1118
▁我不喜欢	-1119
ssible	-1120
▁alone	-1121
▁lives	-1122
▁looks	-1123
▁while	-1124
▁yourself	-1125
一定	-1126
大的	-1127
来说	-1128
男人	-1129
衣服	-1130
orm	-1131
▁ap	-1132
▁明天	-1133
aren	-1134
ball	-1135
orry	-1136
▁din	-1137
▁sec	-1138
▁我可以	-1139
▁even	-1140
▁high	-1141
▁pain	-1142
▁snow	-1143
▁light	-1144
▁sorry	-1145
▁times	-1146
▁coming	-1147
▁office	-1148
▁wonder	-1149
be	-1150
下午	-1151
世界	-1152
爸爸	-1153
ife	-1154
int	-1155
了他的	-1156
怎么样	-1157
▁pay	-1158
▁rec	-1159
▁suc	-1160
▁我想要	-1161
▁easy	-1162
▁kind	-1163
▁learn	-1164
▁lunch	-1165
▁river	-1166
▁matter	-1167
▁usually	-1168
▁without	-1169
▁对	-1170
▁谁	-1171
上学	-1172
习惯	-1173
担心	-1174
看到	-1175
经常	-1176
ank	-1177
▁她的	-1178
▁我是	-1179
▁有人	-1180
▁现在	-1181
aper	-1182
cept	-1183
ense	-1184
noon	-1185
▁ret	-1186
▁son	-1187
▁sur	-1188
▁如果你	-1189
▁chin	-1190
▁doll	-1191
▁mine	-1192
▁wear	-1193
▁word	-1194
arents	-1195
▁agree	-1196
▁haven	-1197
▁minutes	-1198
▁parents	-1199
▁afternoon	-1200
iv	-1201
te	-1202
ys	-1203
▁一	-1204
下来	-1205
不到	-1206
成功	-1207
打算	-1208
找到	-1209
明白	-1210
晚上	-1211
点钟	-1212
父母	-1213
amp	-1214
erm	-1215
icy	-1216
joy	-1217
ote	-1218
oto	-1219
▁sl	-1220
不是吗	-1221
了我的	-1222
cess	-1223
ross	-1224
▁act	-1225
▁dep	-1226
▁sat	-1227
▁为什么	-1228
▁我没有	-1229
▁true	-1230
▁enjoy	-1231
▁shoes	-1232
▁short	-1233
▁those	-1234
▁dinner	-1235
▁street	-1236
▁working	-1237
io	-1238
▁人	-1239
买了	-1240
儿子	-1241
努力	-1242
去年	-1243
去过	-1244
只是	-1245
女孩	-1246
容易	-1247
年轻	-1248
散步	-1249
桌子	-1250
语言	-1251
ock	-1252
til	-1253
▁cr	-1254
▁sk	-1255
▁她在	-1256
▁我从	-1257
▁我听	-1258
得很好	-1259
打网球	-1260
ared	-1261
ised	-1262
side	-1263
▁thr	-1264
▁我需要	-1265
▁clean	-1266
▁dress	-1267
▁seems	-1268
▁stand	-1269
▁start	-1270
▁until	-1271
▁eating	-1272
▁family	-1273
▁window	-1274
▁another	-1275
▁flowers	-1276
▁everything	-1277
不起	-1278
东京	-1279
会来	-1280
周日	-1281
和我	-1282
好了	-1283
常常	-1284
是一	-1285
漂亮	-1286
过了	-1287
这样	-1288
附近	-1289
kyo	-1290
▁昨天	-1291
孩子们	-1292
ince	-1293
ited	-1294
▁box	-1295
anger	-1296
▁desk	-1297
▁fore	-1298
▁most	-1299
▁rest	-1300
▁begin	-1301
▁bring	-1302
▁great	-1303
▁table	-1304
▁tokyo	-1305
▁world	-1306
▁write	-1307
▁accident	-1308
▁studying	-1309
az	-1310
ew	-1311
ph	-1312
▁不	-1313
▁要	-1314
去做	-1315
去看	-1316
回答	-1317
打开	-1318
来了	-1319
照顾	-1320
解决	-1321
警察	-1322
读书	-1323
里有	-1324
ens	-1325
iet	-1326
oud	-1327
▁el	-1328
了这个	-1329
的东西	-1330
ient	-1331
pped	-1332
used	-1333
▁sal	-1334
▁汤姆不	-1335
▁让我们	-1336
▁aren	-1337
▁free	-1338
▁part	-1339
▁pres	-1340
▁sent	-1341
▁sick	-1342
▁tele	-1343
▁angry	-1344
▁glass	-1345
▁lived	-1346
▁uncle	-1347
▁country	-1348
▁everyone	-1349
▁u	-1350
▁但	-1351
上的	-1352
危险	-1353
我会	-1354
生气	-1355
看来	-1356
考试	-1357
rip	-1358
ved	-1359
▁你会	-1360
▁让我	-1361
alth	-1362
ided	-1363
lain	-1364
▁add	-1365
▁beh	-1366
▁dri	-1367
▁hor	-1368
▁我觉得	-1369
aught	-1370
feren	-1371
illed	-1372
▁city	-1373
▁dark	-1374
▁eyes	-1375
▁writ	-1376
▁comes	-1377
▁himself	-1378
▁waiting	-1379
br	-1380
医院	-1381
哪儿	-1382
城市	-1383
女儿	-1384
很难	-1385
比赛	-1386
真相	-1387
让你	-1388
重要	-1389
错误	-1390
食物	-1391
▁ju	-1392
▁tv	-1393
▁请你	-1394
打电话	-1395
给了我	-1396
见到你	-1397
avel	-1398
ular	-1399
ward	-1400
▁bab	-1401
▁cry	-1402
▁red	-1403
▁ser	-1404
▁wom	-1405
▁我不能	-1406
arden	-1407
iness	-1408
ouble	-1409
▁exam	-1410
▁hosp	-1411
▁hands	-1412
▁tried	-1413
▁wrote	-1414
aughter	-1415
▁anyone	-1416
▁become	-1417
▁called	-1418
▁change	-1419
▁garden	-1420
▁pretty	-1421
▁travel	-1422
▁through	-1423
▁hospital	-1424
▁interesting	-1425
."	-1426
▁"	-1427
件事	-1428
叔叔	-1429
妹妹	-1430
封信	-1431
开心	-1432
早餐	-1433
独自	-1434
继续	-1435
见过	-1436
让他	-1437
起床	-1438
钢琴	-1439
麻烦	-1440
ced	-1441
oke	-1442
告诉你	-1443
说的话	-1444
llow	-1445
ming	-1446
ream	-1447
tain	-1448
▁Tom	-1449
▁ref	-1450
▁你必须	-1451
▁你最好	-1452
▁你认为	-1453
▁我们在	-1454
▁both	-1455
▁disc	-1456
▁hair	-1457
▁knew	-1458
▁lend	-1459
▁pian	-1460
▁says	-1461
▁such	-1462
▁wife	-1463
▁broke	-1464
▁large	-1465
▁makes	-1466
▁phone	-1467
▁advice	-1468
▁having	-1469
▁helped	-1470
▁import	-1471
▁living	-1472
▁mistake	-1473
▁daughter	-1474
▁language	-1475
af	-1476
ax	-1477
ia	-1478
li	-1479
一天	-1480
上有	-1481
做了	-1482
唱歌	-1483
大学	-1484
感觉	-1485
所以	-1486
来的	-1487
的书	-1488
这些	-1489
als	-1490
ize	-1491
ret	-1492
road	-1493
▁cap	-1494
▁end	-1495
▁inv	-1496
▁per	-1497
▁reg	-1498
▁sol	-1499
▁tea	-1500
▁我已经	-1501
每个人都	-1502
▁baby	-1503
▁bicy	-1504
▁coll	-1505
▁dict	-1506
▁four	-1507
▁game	-1508
▁pick	-1509
▁supp	-1510
▁trip	-1511
▁wall	-1512
▁looked	-1513
▁wouldn	-1514
▁bicycle	-1515
▁diction	-1516
▁dollars	-1517
▁feeling	-1518
▁talking	-1519
▁students	-1520
▁watching	-1521
pr	-1522
▁1	-1523
▁上	-1524
了解	-1525
作业	-1526
健康	-1527
公车	-1528
年了	-1529
并不	-1530
必要	-1531
最近	-1532
汽车	-1533
考虑	-1534
还没	-1535
era	-1536
▁她把	-1537
▁那个	-1538
一个人	-1539
ason	-1540
ates	-1541
ween	-1542
▁bor	-1543
▁cam	-1544
▁ran	-1545
▁sit	-1546
▁soc	-1547
▁我必须	-1548
▁我无法	-1549
▁这本书	-1550
▁base	-1551
▁clim	-1552
▁comm	-1553
▁else	-1554
gether	-1555
▁piano	-1556
▁since	-1557
▁worth	-1558
▁abroad	-1559
▁danger	-1560
▁health	-1561
▁longer	-1562
▁myself	-1563
▁america	-1564
▁between	-1565
▁happened	-1566
▁speaking	-1567
▁questions	-1568
▁dictionary	-1569
▁从	-1570
▁天	-1571
下一	-1572
兄弟	-1573
兴趣	-1574
哥哥	-1575
国家	-1576
太多	-1577
忘了	-1578
拒绝	-1579
晚饭	-1580
照片	-1581
美元	-1582
要去	-1583
迟到	-1584
通常	-1585
ans	-1586
ash	-1587
not	-1588
ush	-1589
有很多	-1590
汤姆的	-1591
imes	-1592
mmer	-1593
uter	-1594
▁adm	-1595
▁cut	-1596
▁eve	-1597
▁tre	-1598
▁vac	-1599
▁cons	-1600
▁fell	-1601
▁gets	-1602
▁town	-1603
▁apple	-1604
▁birth	-1605
▁catch	-1606
▁eight	-1607
▁grand	-1608
▁loves	-1609
▁point	-1610
▁across	-1611
▁camera	-1612
▁cannot	-1613
▁taking	-1614
▁shouldn	-1615
▁trouble	-1616
▁differen	-1617
▁possible	-1618
▁swimming	-1619
▁together	-1620
▁没	-1621
他会	-1622
似乎	-1623
到他	-1624
办公	-1625
动物	-1626
字典	-1627
就会	-1628
年前	-1629
弟弟	-1630
我能	-1631
有人	-1632
死了	-1633
比我	-1634
英文	-1635
足球	-1636
飞机	-1637
oup	-1638
▁ob	-1639
▁他把	-1640
▁日本	-1641
▁这里	-1642
和玛丽	-1643
所有的	-1644
自己的	-1645
▁hit	-1646
▁mil	-1647
▁rad	-1648
inion	-1649
▁died	-1650
▁each	-1651
▁full	-1652
▁might	-1653
▁mount	-1654
▁movie	-1655
▁sense	-1656
▁spent	-1657
▁expect	-1658
▁follow	-1659
▁seeing	-1660
▁decided	-1661
▁opinion	-1662
▁business	-1663
▁sometimes	-1664
▁很	-1665
也不	-1666
事情	-1667
他是	-1668
值得	-1669
公园	-1670
安静	-1671
完全	-1672
擅长	-1673
放在	-1674
整天	-1675
是你	-1676
自行	-1677
色的	-1678
解释	-1679
谢谢	-1680
那样	-1681
铅笔	-1682
▁他很	-1683
▁昨晚	-1684
办公室	-1685
的时间	-1686
自行车	-1687
▁exc	-1688
▁own	-1689
▁你觉得	-1690
这个问题	-1691
▁clot	-1692
▁conf	-1693
▁fast	-1694
▁head	-1695
▁news	-1696
▁suit	-1697
▁汤姆没有	-1698
▁build	-1699
▁earth	-1700
▁older	-1701
▁radio	-1702
▁yours	-1703
▁caught	-1704
▁strong	-1705
▁summer	-1706
▁against	-1707
▁evening	-1708
▁baseball	-1709
▁computer	-1710
▁mountain	-1711
▁important	-1712
▁listening	-1713
20	-1714
使用	-1715
到达	-1716
午饭	-1717
只狗	-1718
我不	-1719
新的	-1720
是不	-1721
有点	-1722
消息	-1723
清楚	-1724
相机	-1725
真是	-1726
纽约	-1727
给了	-1728
给他	-1729
钥匙	-1730
cil	-1731
ord	-1732
▁nu	-1733
▁我把	-1734
为甚么	-1735
了很多	-1736
什么都	-1737
来这里	-1738
花园里	-1739
说什么	-1740
ched	-1741
osed	-1742
▁abs	-1743
▁div	-1744
▁egg	-1745
▁lie	-1746
▁pat	-1747
▁pop	-1748
▁我们要	-1749
▁汤姆想	-1750
▁没有人	-1751
▁bank	-1752
▁bird	-1753
▁cost	-1754
▁fail	-1755
▁forg	-1756
▁smok	-1757
▁song	-1758
▁then	-1759
▁tree	-1760
▁york	-1761
▁check	-1762
▁climb	-1763
▁death	-1764
▁hotel	-1765
▁quiet	-1766
▁ready	-1767
▁story	-1768
▁became	-1769
▁chance	-1770
▁forget	-1771
▁making	-1772
▁return	-1773
▁secret	-1774
▁chinese	-1775
▁whether	-1776
▁pictures	-1777
▁大	-1778
▁除	-1779
为我	-1780
京都	-1781
休息	-1782
你会	-1783
公司	-1784
听到	-1785
图书	-1786
女人	-1787
安全	-1788
帮你	-1789
愿意	-1790
棒球	-1791
错了	-1792
any	-1793
bab	-1794
lic	-1795
ons	-1796
▁ky	-1797
▁他从	-1798
买了一	-1799
做的事	-1800
去那里	-1801
在这儿	-1802
有一个	-1803
ends	-1804
enty	-1805
fort	-1806
ject	-1807
ries	-1808
▁arm	-1809
▁bag	-1810
▁nat	-1811
▁rep	-1812
▁他喜欢	-1813
▁你喜欢	-1814
▁你怎么	-1815
▁我昨天	-1816
▁汤姆是	-1817
ience	-1818
▁lake	-1819
▁libr	-1820
▁seat	-1821
▁send	-1822
▁汤姆说他	-1823
▁along	-1824
▁chair	-1825
▁clear	-1826
▁kyoto	-1827
▁later	-1828
▁seven	-1829
▁surpr	-1830
▁accept	-1831
▁attend	-1832
▁pencil	-1833
▁soccer	-1834
▁speaks	-1835
▁worked	-1836
▁vacation	-1837
▁dangerous	-1838
em	-1839
gr	-1840
ib	-1841
上班	-1842
写信	-1843
别人	-1844
周末	-1845
困难	-1846
大利	-1847
好像	-1848
帮忙	-1849
得到	-1850
感冒	-1851
故事	-1852
最后	-1853
有趣	-1854
满了	-1855
的吗	-1856
礼物	-1857
老人	-1858
聪明	-1859
说谎	-1860
跟他	-1861
bor	-1862
ces	-1863
ger	-1864
ial	-1865
led	-1866
ned	-1867
ont	-1868
▁fu	-1869
▁mt	-1870
▁一个	-1871
▁他会	-1872
▁他是	-1873
▁我爱	-1874
▁我被	-1875
▁给我	-1876
▁这条	-1877
▁那是	-1878
他们的	-1879
去哪里	-1880
去学校	-1881
图书馆	-1882
在家里	-1883
房间里	-1884
每天都	-1885
here	-1886
mbre	-1887
room	-1888
ully	-1889
upid	-1890
▁men	-1891
▁mom	-1892
▁rel	-1893
▁sto	-1894
▁sub	-1895
▁tic	-1896
▁我们的	-1897
▁我爸爸	-1898
ision	-1899
phone	-1900
veral	-1901
▁bath	-1902
▁glad	-1903
▁gone	-1904
▁poor	-1905
▁prom	-1906
▁test	-1907
▁wash	-1908
▁wine	-1909
mbrell	-1910
▁elect	-1911
▁paper	-1912
▁small	-1913
▁store	-1914
▁woman	-1915
▁concer	-1916
▁others	-1917
▁probab	-1918
▁saying	-1919
▁stupid	-1920
▁library	-1921
▁several	-1922
▁sundays	-1923
▁umbrell	-1924
▁writing	-1925
30	-1926
lt	-1927
▁z	-1928
但我	-1929
几个	-1930
坐在	-1931
头发	-1932
妻子	-1933
得不	-1934
情况	-1935
感谢	-1936
报纸	-1937
抱歉	-1938
接受	-1939
有多	-1940
机会	-1941
注意	-1942
电脑	-1943
病了	-1944
秘密	-1945
窗户	-1946
通过	-1947
都是	-1948
马上	-1949
fer	-1950
ics	-1951
man	-1952
unk	-1953
▁我只	-1954
▁警察	-1955
▁许多	-1956
▁请把	-1957
看电视	-1958
跟汤姆	-1959
ceed	-1960
oken	-1961
urch	-1962
▁age	-1963
▁art	-1964
▁dur	-1965
▁flo	-1966
▁inc	-1967
▁med	-1968
▁swe	-1969
▁我相信	-1970
ition	-1971
▁club	-1972
▁dead	-1973
▁grow	-1974
▁kept	-1975
▁luck	-1976
▁rich	-1977
▁shut	-1978
▁chang	-1979
▁front	-1980
▁horse	-1981
▁juice	-1982
▁worry	-1983
▁belong	-1984
▁during	-1985
▁finish	-1986
▁nobody	-1987
▁reason	-1988
▁stayed	-1989
▁weight	-1990
▁enjoyed	-1991
▁present	-1992
▁raining	-1993
▁smoking	-1994
▁success	-1995
▁building	-1996
▁probably	-1997
▁umbrella	-1998
▁telephone	-1999
cy	-2000
▁下	-2001
▁再	-2002
三个	-2003
事故	-2004
会儿	-2005
你在	-2006
吃了	-2007
吉他	-2008
和他	-2009
唯一	-2010
害怕	-2011
小心	-2012
尽力	-2013
巴黎	-2014
帽子	-2015
您的	-2016
我去	-2017
我就	-2018
手表	-2019
是否	-2020
有个	-2021
比你	-2022
生日	-2023
用的	-2024
眼镜	-2025
说她	-2026
走路	-2027
辆车	-2028
进了	-2029
都在	-2030
音机	-2031
驾驶	-2032
erv	-2033
irt	-2034
ove	-2035
uss	-2036
vel	-2037
▁ok	-2038
▁sa	-2039
▁但愿	-2040
▁英语	-2041
不是么	-2042
可能会	-2043
是什么	-2044
aken	-2045
ison	-2046
itar	-2047
ured	-2048
▁cor	-2049
▁ill	-2050
▁ind	-2051
▁inf	-2052
▁law	-2053
▁pri	-2054
▁tax	-2055
▁他不是	-2056
▁他没有	-2057
fully	-2058
ither	-2059
ivers	-2060
▁anim	-2061
▁card	-2062
▁dogs	-2063
▁felt	-2064
▁hasn	-2065
▁heav	-2066
▁road	-2067
▁每个人都	-2068
▁dream	-2069
▁floor	-2070
▁hurry	-2071
▁inter	-2072
▁laugh	-2073
▁plays	-2074
▁quick	-2075
▁church	-2076
▁guitar	-2077
▁rather	-2078
▁turned	-2079
▁address	-2080
▁careful	-2081
▁running	-2082
▁started	-2083
▁studied	-2084
▁weekend	-2085
▁birthday	-2086
▁mistakes	-2087
▁everybody	-2088
▁interested	-2089
▁哪	-2090
不了	-2091
不好	-2092
也没	-2093
关系	-2094
其他	-2095
准时	-2096
出来	-2097
夏天	-2098
失败	-2099
小孩	-2100
想法	-2101
意见	-2102
承认	-2103
把它	-2104
教堂	-2105
旅馆	-2106
曾经	-2107
期待	-2108
来自	-2109
永远	-2110
眼睛	-2111
立刻	-2112
第一	-2113
箱子	-2114
结束	-2115
花了	-2116
英国	-2117
蛋糕	-2118
讨论	-2119
说的	-2120
足够	-2121
跟她	-2122
银行	-2123
长大	-2124
高中	-2125
log	-2126
ves	-2127
▁vo	-2128
▁因为	-2129
收音机	-2130
最喜欢	-2131
最好的	-2132
有一些	-2133
的地方	-2134
ical	-2135
▁die	-2136
▁hat	-2137
▁kit	-2138
▁set	-2139
▁你不能	-2140
▁对不起	-2141
▁我不是	-2142
▁我明天	-2143
▁我看见	-2144
▁我非常	-2145
对我来说	-2146
itten	-2147
where	-2148
▁cake	-2149
▁grad	-2150
▁milk	-2151
▁paid	-2152
▁team	-2153
ations	-2154
ention	-2155
▁newsp	-2156
▁paris	-2157
▁takes	-2158
▁behind	-2159
▁famous	-2160
▁movies	-2161
▁number	-2162
▁passed	-2163
▁played	-2164
▁spoken	-2165
▁clothes	-2166
▁driving	-2167
▁explain	-2168
▁forward	-2169
▁outside	-2170
▁succeed	-2171
▁univers	-2172
gn	-2173
ji	-2174
不见	-2175
中国	-2176
中文	-2177
介意	-2178
借我	-2179
做到	-2180
六点	-2181
功课	-2182
和你	-2183
士山	-2184
完了	-2185
对的	-2186
忍受	-2187
改变	-2188
放学	-2189
早起	-2190
晚餐	-2191
更多	-2192
机场	-2193
椅子	-2194
比较	-2195
犯了	-2196
理由	-2197
甚至	-2198
给她	-2199
老板	-2200
聚会	-2201
要求	-2202
运动	-2203
这种	-2204
阅读	-2205
ilt	-2206
ses	-2207
▁她不	-2208
▁当我	-2209
▁我还	-2210
一本书	-2211
公园里	-2212
在那里	-2213
富士山	-2214
很有趣	-2215
星期天	-2216
的女孩	-2217
说法语	-2218
迟到了	-2219
ages	-2220
airs	-2221
ions	-2222
more	-2223
omed	-2224
ying	-2225
▁bas	-2226
▁col	-2227
▁its	-2228
▁pie	-2229
▁sky	-2230
▁tou	-2231
▁他是个	-2232
▁她现在	-2233
▁我以前	-2234
▁我妈妈	-2235
▁我真的	-2236
做了什么	-2237
ating	-2238
▁born	-2239
▁boss	-2240
▁bott	-2241
▁dist	-2242
▁eggs	-2243
▁fall	-2244
▁foot	-2245
▁fuji	-2246
▁ital	-2247
▁lock	-2248
▁prop	-2249
▁quit	-2250
▁slow	-2251
▁temp	-2252
▁我不认为	-2253
ighbor	-2254
itting	-2255
▁carry	-2256
▁drunk	-2257
▁marry	-2258
▁plane	-2259
▁stamp	-2260
▁storm	-2261
▁teach	-2262
▁trust	-2263
▁我认为汤姆	-2264
▁汤姆和玛丽	-2265
▁decide	-2266
▁expens	-2267
▁forgot	-2268
▁talked	-2269
▁ticket	-2270
▁winter	-2271
▁airport	-2272
▁anymore	-2273
▁company	-2274
▁cooking	-2275
▁glasses	-2276
▁herself	-2277
▁walking	-2278
▁wearing	-2279
▁neighbor	-2280
▁university	-2281
by	-2282
kk	-2283
za	-2284
▁只	-2285
一切	-2286
一杯	-2287
不太	-2288
为了	-2289
之间	-2290
但是	-2291
北海	-2292
去世	-2293
声音	-2294
小说	-2295
巴士	-2296
年纪	-2297
惊讶	-2298
打扫	-2299
放弃	-2300
教师	-2301
数学	-2302
早点	-2303
来看	-2304
牛奶	-2305
看了	-2306
舒服	-2307
试著	-2308
说得	-2309
进来	-2310
都会	-2311
eal	-2312
ric	-2313
ude	-2314
uit	-2315
▁sy	-2316
▁他被	-2317
▁你还	-2318
▁我刚	-2319
▁我厌	-2320
做甚么	-2321
北海道	-2322
很好的	-2323
很容易	-2324
感兴趣	-2325
没有人	-2326
结婚了	-2327
让汤姆	-2328
长时间	-2329
aged	-2330
aido	-2331
ever	-2332
idge	-2333
irty	-2334
less	-2335
ness	-2336
urse	-2337
▁ass	-2338
▁cer	-2339
▁ext	-2340
▁guy	-2341
▁har	-2342
▁hon	-2343
▁key	-2344
▁lea	-2345
▁piz	-2346
▁pub	-2347
▁我不会	-2348
▁我正在	-2349
▁我每天	-2350
▁我记得	-2351
▁请给我	-2352
▁这不是	-2353
▁这是我	-2354
告诉汤姆	-2355
很快就会	-2356
dered	-2357
icine	-2358
▁bill	-2359
▁deep	-2360
▁fool	-2361
▁half	-2362
▁hokk	-2363
▁hold	-2364
▁mail	-2365
▁move	-2366
▁post	-2367
▁prep	-2368
▁real	-2369
▁sell	-2370
▁sign	-2371
▁taxi	-2372
▁wake	-2373
▁为什么你	-2374
▁我们必须	-2375
▁汤姆是个	-2376
发生了什么	-2377
▁began	-2378
▁black	-2379
▁clock	-2380
▁close	-2381
▁enter	-2382
▁exact	-2383
▁worse	-2384
▁你什么时候	-2385
▁apples	-2386
▁borrow	-2387
▁killed	-2388
▁moment	-2389
▁monday	-2390
▁showed	-2391
▁waited	-2392
▁brought	-2393
▁certain	-2394
▁foreign	-2395
▁leaving	-2396
▁visited	-2397
▁hokkaido	-2398
▁medicine	-2399
▁problems	-2400
▁expensive	-2401
10	-2402
ai	-2403
▁太	-2404
一只	-2405
一张	-2406
不同	-2407
主意	-2408
以为	-2409
住了	-2410
你们	-2411
再来	-2412
写了	-2413
出门	-2414
办法	-2415
地址	-2416
存在	-2417
对你	-2418
将在	-2419
很大	-2420
快乐	-2421
想去	-2422
欧洲	-2423
理解	-2424
肯定	-2425
胜过	-2426
衬衫	-2427
让她	-2428
说了	-2429
这事	-2430
选择	-2431
遇见	-2432
邀请	-2433
那些	-2434
都不	-2435
钢笔	-2436
鞋子	-2437
hen	-2438
ime	-2439
isf	-2440
lan	-2441
une	-2442
uro	-2443
▁im	-2444
▁人们	-2445
▁今晚	-2446
▁所有	-2447
一起去	-2448
十分钟	-2449
叫什么	-2450
放学后	-2451
玛丽的	-2452
的问题	-2453
ames	-2454
ener	-2455
ider	-2456
ract	-2457
▁cup	-2458
▁yen	-2459
▁他们在	-2460
▁他已经	-2461
▁你不必	-2462
▁你昨天	-2463
▁你现在	-2464
▁告诉我	-2465
▁我们不	-2466
▁我期待	-2467
一个朋友	-2468
告诉我们	-2469
aster	-2470
ction	-2471
ended	-2472
urope	-2473
▁cats	-2474
▁cour	-2475
▁deal	-2476
▁fact	-2477
▁fine	-2478
▁nine	-2479
▁side	-2480
▁thre	-2481
▁till	-2482
▁wood	-2483
▁我会给你	-2484
father	-2485
▁allow	-2486
▁earli	-2487
▁eaten	-2488
▁fruit	-2489
▁guess	-2490
▁known	-2491
▁maybe	-2492
▁order	-2493
▁ought	-2494
▁pizza	-2495
▁smoke	-2496
▁twice	-2497
▁white	-2498
▁汤姆不知道	-2499
▁汤姆告诉我	-2500
▁crying	-2501
▁europe	-2502
▁prison	-2503
▁walked	-2504
▁stopped	-2505
▁written	-2506
▁american	-2507
▁consider	-2508
▁sentence	-2509
▁thinking	-2510
▁newspaper	-2511
▁wonderful	-2512
▁grandfather	-2513
▁到	-2514
▁狗	-2515
▁看	-2516
下了	-2517
乐部	-2518
了个	-2519
事实	-2520
你了	-2521
你能	-2522
保持	-2523
允许	-2524
几天	-2525
出发	-2526
到我	-2527
加拿	-2528
历史	-2529
厨房	-2530
反对	-2531
吃点	-2532
同样	-2533
和她	-2534
哪个	-2535
商店	-2536
喝点	-2537
国外	-2538
坏了	-2539
子里	-2540
家人	-2541
对面	-2542
尽快	-2543
愉快	-2544
我是	-2545
方式	-2546
日元	-2547
有空	-2548
来吗	-2549
正确	-2550
满意	-2551
特别	-2552
看过	-2553
礼貌	-2554
简单	-2555
美丽	-2556
过来	-2557
这是	-2558
邮票	-2559
bit	-2560
ege	-2561
erc	-2562
ham	-2563
ier	-2564
ift	-2565
unt	-2566
▁ce	-2567
▁fa	-2568
▁ty	-2569
▁他对	-2570
▁你没	-2571
▁医生	-2572
▁我该	-2573
▁我请	-2574
▁谢谢	-2575
下雨了	-2576
俱乐部	-2577
吃什么	-2578
弹钢琴	-2579
的事情	-2580
chen	-2581
ices	-2582
land	-2583
olog	-2584
ustr	-2585
▁aff	-2586
▁cho	-2587
▁dro	-2588
▁fly	-2589
▁owe	-2590
▁你需要	-2591
▁孩子们	-2592
▁我们有	-2593
▁我厌倦	-2594
▁我妹妹	-2595
▁我昨晚	-2596
▁我确定	-2597
▁汤姆把	-2598
▁汤姆的	-2599
affic	-2600
ently	-2601
▁appe	-2602
▁aunt	-2603
▁crow	-2604
▁date	-2605
▁furn	-2606
▁germ	-2607
▁guys	-2608
▁hurt	-2609
▁impo	-2610
▁ride	-2611
▁salt	-2612
▁ship	-2613
▁sugg	-2614
▁今天早上	-2615
▁你不应该	-2616
▁我知道你	-2617
▁canad	-2618
▁color	-2619
▁gradu	-2620
▁heavy	-2621
▁needs	-2622
▁novel	-2623
▁pract	-2624
▁proud	-2625
▁taken	-2626
▁touch	-2627
▁trans	-2628
▁whole	-2629
▁whose	-2630
ination	-2631
▁asleep	-2632
▁comple	-2633
▁easily	-2634
▁either	-2635
▁except	-2636
▁hungry	-2637
▁months	-2638
▁prefer	-2639
▁public	-2640
▁report	-2641
▁anybody	-2642
▁capital	-2643
▁changed	-2644
▁college	-2645
▁earlier	-2646
▁invited	-2647
▁kitchen	-2648
▁quickly	-2649
▁staying	-2650
▁traffic	-2651
▁younger	-2652
▁actually	-2653
▁complain	-2654
▁learning	-2655
▁different	-2656
▁impossible	-2657
du	-2658
ey	-2659
gu	-2660
▁5	-2661
▁6	-2662
▁去	-2663
▁由	-2664
▁能	-2665
一名	-2666
一支	-2667
一本	-2668
三天	-2669
下雪	-2670
丢了	-2671
两次	-2672
以后	-2673
价格	-2674
你来	-2675
修理	-2676
偷了	-2677
冬天	-2678
午餐	-2679
地震	-2680
外国	-2681
大约	-2682
好人	-2683
就能	-2684
幸福	-2685
度假	-2686
建筑	-2687
很久	-2688
得多	-2689
忘记	-2690
意义	-2691
意外	-2692
我在	-2693
我没	-2694
戒烟	-2695
战争	-2696
报告	-2697
收到	-2698
旁边	-2699
日语	-2700
根本	-2701
检查	-2702
欢迎	-2703
毕业	-2704
河里	-2705
生命	-2706
的路	-2707
科学	-2708
耐心	-2709
行李	-2710
车子	-2711
适合	-2712
道歉	-2713
那儿	-2714
那是	-2715
钱包	-2716
面包	-2717
首歌	-2718
aug	-2719
aur	-2720
ber	-2721
ior	-2722
ron	-2723
ton	-2724
usb	-2725
▁es	-2726
▁你该	-2727
▁她为	-2728
▁她很	-2729
▁我一	-2730
▁我得	-2731
▁我怕	-2732
▁我问	-2733
▁有些	-2734
▁这家	-2735
▁这张	-2736
▁除了	-2737
下个月	-2738
什么事	-2739
去世了	-2740
回来的	-2741
多久了	-2742
多少钱	-2743
工作了	-2744
汤姆会	-2745
玩得很	-2746
班火车	-2747
的那个	-2748
第一次	-2749
美国人	-2750
avor	-2751
oose	-2752
outh	-2753
ring	-2754
▁ate	-2755
▁bur	-2756
▁cal	-2757
▁ent	-2758
▁fif	-2759
▁flu	-2760
▁fut	-2761
▁kid	-2762
▁你今天	-2763
▁你想要	-2764
▁你明天	-2765
▁她没有	-2766
▁我一直	-2767
▁我是个	-2768
▁我有一	-2769
▁汤姆没	-2770
任何东西	-2771
在波士顿	-2772
▁ball	-2773
▁cent	-2774
▁face	-2775
▁gift	-2776
▁grew	-2777
▁less	-2778
▁lose	-2779
▁priv	-2780
▁reco	-2781
▁resp	-2782
▁你看起来	-2783
▁我们应该	-2784
▁我们没有	-2785
▁我希望你	-2786
▁我很高兴	-2787
▁汤姆知道	-2788
叫什么名字	-2789
isfied	-2790
ousand	-2791
usband	-2792
▁alive	-2793
▁bread	-2794
▁china	-2795
▁crowd	-2796
▁exper	-2797
▁offer	-2798
▁photo	-2799
▁plans	-2800
▁shirt	-2801
▁solve	-2802
▁trees	-2803
artment	-2804
▁apolog	-2805
▁bridge	-2806
▁driver	-2807
▁failed	-2808
▁filled	-2809
▁future	-2810
▁honest	-2811
▁inform	-2812
▁leaves	-2813
▁minute	-2814
▁transl	-2815
▁trying	-2816
▁collect	-2817
▁depends	-2818
▁discuss	-2819
▁earthqu	-2820
▁exactly	-2821
▁meaning	-2822
▁serious	-2823
▁sitting	-2824
▁strange	-2825
▁worried	-2826
▁thousand	-2827
▁carefully	-2828
▁surprised	-2829
▁information	-2830
co	-2831
▁尽	-2832
▁据	-2833
▁每	-2834
▁用	-2835
▁真	-2836
▁还	-2837
一条	-2838
上床	-2839
不多	-2840
中的	-2841
为你	-2842
之后	-2843
了她	-2844
今年	-2845
信任	-2846
做饭	-2847
免费	-2848
入了	-2849
关于	-2850
再也	-2851
几点	-2852
出国	-2853
出生	-2854
十年	-2855
呼吸	-2856
啤酒	-2857
姐姐	-2858
它是	-2859
就要	-2860
很忙	-2861
很高	-2862
微笑	-2863
快点	-2864
成了	-2865
我想	-2866
护士	-2867
抱怨	-2868
整个	-2869
方法	-2870
早饭	-2871
明年	-2872
是吗	-2873
死于	-2874
母语	-2875
法国	-2876
穿著	-2877
突然	-2878
站在	-2879
笑了	-2880
笑话	-2881
累了	-2882
约会	-2883
终于	-2884
翻译	-2885
能力	-2886
见你	-2887
试图	-2888
说过	-2889
谈论	-2890
跑步	-2891
身上	-2892
车吗	-2893
车撞	-2894
这份	-2895
那事	-2896
野餐	-2897
钓鱼	-2898
问我	-2899
马路	-2900
den	-2901
eth	-2902
icn	-2903
ken	-2904
ual	-2905
ute	-2906
▁他说	-2907
▁伦敦	-2908
▁你很	-2909
▁去年	-2910
▁她会	-2911
▁我真	-2912
▁没人	-2913
▁火车	-2914
▁请问	-2915
一会儿	-2916
上你的	-2917
下一步	-2918
不可能	-2919
不高兴	-2920
了一些	-2921
任何人	-2922
你的书	-2923
去上学	-2924
吃早餐	-2925
和他的	-2926
在日本	-2927
太多了	-2928
就好了	-2929
怎么做	-2930
找到了	-2931
的英语	-2932
给我们	-2933
给我的	-2934
给玛丽	-2935
足够的	-2936
递给我	-2937
都没有	-2938
ache	-2939
alia	-2940
aves	-2941
cent	-2942
grap	-2943
ines	-2944
osal	-2945
tory	-2946
umor	-2947
▁eng	-2948
▁ice	-2949
▁map	-2950
▁mur	-2951
▁top	-2952
▁他不会	-2953
▁他可能	-2954
▁他总是	-2955
▁他昨天	-2956
▁你相信	-2957
▁她是个	-2958
▁我从没	-2959
▁我几乎	-2960
▁说英语	-2961
▁那是我	-2962
一点也不	-2963
去看电影	-2964
待在家里	-2965
acket	-2966
icnic	-2967
▁beer	-2968
▁bell	-2969
▁burn	-2970
▁case	-2971
▁hate	-2972
▁laug	-2973
▁lots	-2974
▁loud	-2975
▁mess	-2976
▁none	-2977
▁noon	-2978
▁shop	-2979
▁step	-2980
▁我想知道	-2981
▁我认为我	-2982
玩得很开心	-2983
aurant	-2984
vision	-2985
▁austr	-2986
▁beach	-2987
▁exerc	-2988
▁exist	-2989
▁favor	-2990
▁knock	-2991
▁neare	-2992
▁noise	-2993
▁price	-2994
▁spend	-2995
▁spoke	-2996
▁sport	-2997
▁teeth	-2998
cessary	-2999
ulation	-3000
ustomed	-3001
▁broken	-3002
▁canada	-3003
▁choose	-3004
▁closed	-3005
▁excuse	-3006
▁flower	-3007
▁inside	-3008
▁likely	-3009
▁missed	-3010
▁partic	-3011
▁picnic	-3012
▁slowly	-3013
▁taller	-3014
▁twenty	-3015
▁animals	-3016
▁concert	-3017
▁fishing	-3018
▁history	-3019
▁husband	-3020
▁laughed	-3021
▁learned	-3022
▁ordered	-3023
▁patient	-3024
▁refused	-3025
▁sisters	-3026
▁suggest	-3027
▁brothers	-3028
▁electric	-3029
▁attention	-3030
▁australia	-3031
▁countries	-3032
▁graduated	-3033
▁languages	-3034
▁somewhere	-3035
▁accustomed	-3036
▁difference	-3037
▁restaurant	-3038
▁television	-3039
cc	-3040
▁多	-3041
▁就	-3042
▁海	-3043
▁火	-3044
一遍	-3045
丈夫	-3046
三次	-3047
下周	-3048
不去	-3049
中受	-3050
书桌	-3051
交通	-3052
从来	-3053
他不	-3054
何时	-3055
做得	-3056
停止	-3057
公交	-3058
关门	-3059
出席	-3060
出现	-3061
利用	-3062
前面	-3063
句子	-3064
句话	-3065
号码	-3066
吃完	-3067
吃过	-3068
吃饭	-3069
嗜好	-3070
处理	-3071
外套	-3072
失去	-3073
奇怪	-3074
姐妹	-3075
婴儿	-3076
学会	-3077
家具	-3078
将会	-3079
就像	-3080
干净	-3081
怎样	-3082
我吗	-3083
所知	-3084
手臂	-3085
持续	-3086
收集	-3087
新车	-3088
柳橙	-3089
水果	-3090
流利	-3091
浪费	-3092
游戏	-3093
滑雪	-3094
然后	-3095
玫瑰	-3096
盒子	-3097
目前	-3098
祖父	-3099
离婚	-3100
等待	-3101
答案	-3102
糟糕	-3103
罗马	-3104
能够	-3105
规则	-3106
警告	-3107
计程	-3108
讨厌	-3109
请你	-3110
读完	-3111
赶上	-3112
跑得	-3113
跳舞	-3114
车去	-3115
过去	-3116
这张	-3117
进步	-3118
退休	-3119
里的	-3120
里面	-3121
随时	-3122
000	-3123
aka	-3124
ech	-3125
hip	-3126
inc	-3127
mat	-3128
oof	-3129
res	-3130
▁os	-3131
▁你把	-3132
▁你真	-3133
▁她被	-3134
▁我家	-3135
▁我猜	-3136
▁我看	-3137
▁这场	-3138
▁这本	-3139
世界上	-3140
他的车	-3141
任何事	-3142
你应该	-3143
你必须	-3144
你想要	-3145
到车站	-3146
到那里	-3147
加拿大	-3148
危险的	-3149
和汤姆	-3150
回来了	-3151
失败了	-3152
弹吉他	-3153
怎么了	-3154
想知道	-3155
所以我	-3156
是对的	-3157
更好的	-3158
最近的	-3159
有什么	-3160
漂亮的	-3161
用我的	-3162
真的很	-3163
离开了	-3164
给汤姆	-3165
自己做	-3166
认为我	-3167
讲英语	-3168
这封信	-3169
遇到了	-3170
音乐会	-3171
case	-3172
ches	-3173
cket	-3174
dred	-3175
ency	-3176
ined	-3177
lves	-3178
oint	-3179
olen	-3180
ules	-3181
▁bar	-3182
▁cot	-3183
▁cur	-3184
▁dad	-3185
▁dut	-3186
▁emp	-3187
▁fox	-3188
▁gas	-3189
▁hid	-3190
▁hob	-3191
▁inj	-3192
▁leg	-3193
▁mag	-3194
▁mot	-3195
▁opp	-3196
▁pur	-3197
▁wed	-3198
▁他非常	-3199
▁你介意	-3200
▁你确定	-3201
▁我不懂	-3202
▁我以为	-3203
▁我们能	-3204
▁我只是	-3205
▁我同意	-3206
▁我哥哥	-3207
▁我想你	-3208
▁我打算	-3209
▁我认识	-3210
▁汤姆有	-3211
▁请不要	-3212
▁请让我	-3213
学习英语	-3214
成为一名	-3215
每天早上	-3216
没有任何	-3217
这个工作	-3218
asure	-3219
ately	-3220
ceive	-3221
gging	-3222
graph	-3223
gress	-3224
ility	-3225
ouple	-3226
pping	-3227
▁argu	-3228
▁char	-3229
▁clos	-3230
▁hill	-3231
▁lady	-3232
▁meal	-3233
▁meat	-3234
▁past	-3235
▁safe	-3236
▁sold	-3237
▁star	-3238
▁你为甚么	-3239
▁我不记得	-3240
▁我们明天	-3241
▁汤姆现在	-3242
▁汤姆看来	-3243
▁请告诉我	-3244
▁这个男孩	-3245
ission	-3246
▁appro	-3247
▁built	-3248
▁dance	-3249
▁divor	-3250
▁ended	-3251
▁fault	-3252
▁fight	-3253
▁girls	-3254
▁green	-3255
▁italy	-3256
▁keeps	-3257
▁least	-3258
▁liked	-3259
▁loved	-3260
▁means	-3261
▁nurse	-3262
▁osaka	-3263
▁paint	-3264
▁round	-3265
▁rules	-3266
▁shelf	-3267
▁sight	-3268
▁tears	-3269
▁throw	-3270
▁words	-3271
▁我不知道他	-3272
解决这个问题	-3273
▁basket	-3274
▁bottle	-3275
▁couple	-3276
▁eleven	-3277
▁france	-3278
▁harder	-3279
▁hardly	-3280
▁native	-3281
▁plenty	-3282
▁second	-3283
▁states	-3284
▁stolen	-3285
▁united	-3286
▁climbed	-3287
▁england	-3288
▁finally	-3289
▁hundred	-3290
▁injured	-3291
▁nearest	-3292
▁popular	-3293
▁regular	-3294
▁complete	-3295
▁exercise	-3296
▁progress	-3297
▁proposal	-3298
▁returned	-3299
▁sleeping	-3300
▁supposed	-3301
▁whatever	-3302
▁pretended	-3303
▁satisfied	-3304
▁population	-3305
bt	-3306
ci	-3307
ee	-3308
uf	-3309
▁全	-3310
▁好	-3311
▁小	-3312
▁水	-3313
▁猫	-3314
▁自	-3315
▁该	-3316
▁走	-3317
▁风	-3318
一位	-3319
一周	-3320
一年	-3321
一把	-3322
不错	-3323
中午	-3324
中心	-3325
之一	-3326
人的	-3327
他还	-3328
代表	-3329
作家	-3330
便宜	-3331
保证	-3332
倒了	-3333
假装	-3334
做完	-3335
停了	-3336
像个	-3337
再次	-3338
出了	-3339
勇敢	-3340
十分	-3341
单上	-3342
取消	-3343
听见	-3344
吸烟	-3345
哭了	-3346
喝酒	-3347
在乎	-3348
地图	-3349
外面	-3350
大声	-3351
大家	-3352
大阪	-3353
太阳	-3354
它的	-3355
属于	-3356
幅画	-3357
座位	-3358
座山	-3359
开门	-3360
待了	-3361
很棒	-3362
很长	-3363
得了	-3364
忙著	-3365
忠告	-3366
快要	-3367
怀疑	-3368
想到	-3369
打扰	-3370
拍照	-3371
提供	-3372
教室	-3373
敲门	-3374
更好	-3375
法律	-3376
洗澡	-3377
火灾	-3378
爱我	-3379
狐狸	-3380
留在	-3381
疯了	-3382
相同	-3383
相当	-3384
着了	-3385
石头	-3386
确实	-3387
等了	-3388
紧张	-3389
要花	-3390
见到	-3391
设法	-3392
访问	-3393
诚实	-3394
诺言	-3395
负责	-3396
这儿	-3397
遗憾	-3398
那时	-3399
那种	-3400
邮局	-3401
邻居	-3402
除了	-3403
鸡蛋	-3404
ape	-3405
ato	-3406
ell	-3407
iew	-3408
ike	-3409
ird	-3410
med	-3411
old	-3412
ors	-3413
ued	-3414
ury	-3415
▁ef	-3416
▁gh	-3417
▁gi	-3418
▁ve	-3419
▁他比	-3420
▁会议	-3421
▁你对	-3422
▁在这	-3423
▁学校	-3424
▁当你	-3425
▁我宁	-3426
▁我将	-3427
▁我每	-3428
▁老师	-3429
▁这不	-3430
一定是	-3431
一小时	-3432
一整天	-3433
一样高	-3434
下一站	-3435
你的信	-3436
十年了	-3437
去哪儿	-3438
吃晚饭	-3439
听音乐	-3440
告诉过	-3441
在哪儿	-3442
学法语	-3443
干什么	-3444
年轻人	-3445
很高兴	-3446
意大利	-3447
我父亲	-3448
打棒球	-3449
找不到	-3450
搭公车	-3451
日本的	-3452
星期日	-3453
火车站	-3454
照相机	-3455
的人口	-3456
的女人	-3457
的房子	-3458
的路上	-3459
相信你	-3460
跟玛丽	-3461
那件事	-3462
铅笔吗	-3463
问题吗	-3464
aces	-3465
ator	-3466
ding	-3467
erat	-3468
hood	-3469
ides	-3470
like	-3471
osts	-3472
pose	-3473
time	-3474
ulty	-3475
▁del	-3476
▁dou	-3477
▁due	-3478
▁equ	-3479
▁eye	-3480
▁fro	-3481
▁low	-3482
▁nor	-3483
▁occ	-3484
▁pot	-3485
▁ris	-3486
▁sad	-3487
▁sil	-3488
▁sle	-3489
▁ste	-3490
▁他住在	-3491
▁他明天	-3492
▁但愿我	-3493
▁你真的	-3494
▁她喜欢	-3495
▁我们都	-3496
▁我叔叔	-3497
▁我常常	-3498
▁我应该	-3499
▁我要去	-3500
▁昨天我	-3501
▁这是你	-3502
俱乐部的	-3503
几个小时	-3504
继续工作	-3505
要做什么	-3506
说了什么	-3507
这份工作	-3508
ached	-3509
ality	-3510
anges	-3511
arket	-3512
hemat	-3513
ities	-3514
iture	-3515
useum	-3516
vered	-3517
wered	-3518
▁boat	-3519
▁boys	-3520
▁cash	-3521
▁coat	-3522
▁cott	-3523
▁jump	-3524
▁kill	-3525
▁lift	-3526
▁moon	-3527
▁pair	-3528
▁prof	-3529
▁ring	-3530
▁rock	-3531
▁rome	-3532
▁rude	-3533
▁soup	-3534
▁vill	-3535
▁warm	-3536
▁今天下午	-3537
▁她不喜欢	-3538
▁我厌倦了	-3539
▁我想让你	-3540
mother	-3541
selves	-3542
vented	-3543
▁above	-3544
▁cross	-3545
▁gener	-3546
▁habit	-3547
▁press	-3548
▁rains	-3549
▁reach	-3550
▁roses	-3551
▁smell	-3552
▁smile	-3553
▁truck	-3554
▁voice	-3555
▁walks	-3556
▁waste	-3557
▁women	-3558
▁works	-3559
▁你为什么不	-3560
▁我希望汤姆	-3561
▁afford	-3562
▁asking	-3563
▁assist	-3564
▁common	-3565
▁contin	-3566
▁corner	-3567
▁depend	-3568
▁drinks	-3569
▁ghosts	-3570
▁jacket	-3571
▁museum	-3572
▁needed	-3573
▁object	-3574
▁opened	-3575
▁prices	-3576
▁scared	-3577
▁speech	-3578
▁sports	-3579
▁superm	-3580
▁useful	-3581
▁wallet	-3582
▁汤姆告诉我他	-3583
▁account	-3584
▁carried	-3585
▁comfort	-3586
▁cookies	-3587
▁covered	-3588
▁finding	-3589
▁missing	-3590
▁oranges	-3591
▁purpose	-3592
▁respect	-3593
▁respons	-3594
▁telling	-3595
▁village	-3596
▁watched	-3597
▁answered	-3598
▁mathemat	-3599
▁recently	-3600
▁shoulder	-3601
▁somebody	-3602
▁standing	-3603
▁apologize	-3604
▁furniture	-3605
▁necessary	-3606
▁difficulty	-3607
▁earthquake	-3608
▁grandmother	-3609
▁supermarket	-3610
aj	-3611
gy	-3612
ny	-3613
ug	-3614
ze	-3615
▁4	-3616
▁“	-3617
▁做	-3618
▁来	-3619
▁爱	-3620
▁船	-3621
▁警	-3622
▁雨	-3623
一份	-3624
一家	-3625
一间	-3626
上午	-3627
上周	-3628
上面	-3629
不够	-3630
不该	-3631
两天	-3632
九点	-3633
从不	-3634
仔细	-3635
他了	-3636
他在	-3637
会去	-3638
会员	-3639
会在	-3640
依靠	-3641
八点	-3642
关心	-3643
其中	-3644
分之	-3645
到家	-3646
博物	-3647
原谅	-3648
及时	-3649
发烧	-3650
各地	-3651
向你	-3652
听过	-3653
响了	-3654
噪音	-3655
国际	-3656
在十	-3657
场合	-3658
大概	-3659
太太	-3660
她在	-3661
好多	-3662
好运	-3663
如此	-3664
宝宝	-3665
家伙	-3666
家都	-3667
寿司	-3668
帮他	-3669
底下	-3670
当时	-3671
待在	-3672
很冷	-3673
很晚	-3674
总统	-3675
恐怕	-3676
才能	-3677
抽烟	-3678
挂在	-3679
教我	-3680
教育	-3681
断了	-3682
旅游	-3683
暴风	-3684
期望	-3685
杂志	-3686
板上	-3687
果汁	-3688
毫无	-3689
没来	-3690
澳洲	-3691
点儿	-3692
玩具	-3693
的花	-3694
相处	-3695
看着	-3696
看著	-3697
真好	-3698
祖母	-3699
第二	-3700
等你	-3701
等我	-3702
结果	-3703
而为	-3704
至少	-3705
艺术	-3706
行动	-3707
行星	-3708
见面	-3709
证明	-3710
试着	-3711
说你	-3712
说吗	-3713
轻松	-3714
这场	-3715
遵守	-3716
颜色	-3717
饿了	-3718
azy	-3719
bed	-3720
con	-3721
cri	-3722
cut	-3723
ief	-3724
ili	-3725
lew	-3726
mon	-3727
oth	-3728
rol	-3729
ror	-3730
way	-3731
▁10	-3732
▁20	-3733
▁30	-3734
▁av	-3735
▁cd	-3736
▁ed	-3737
▁ev	-3738
▁id	-3739
▁她有	-3740
▁她用	-3741
▁我也	-3742
▁我吃	-3743
▁我正	-3744
▁父亲	-3745
▁看来	-3746
▁这只	-3747
▁这辆	-3748
▁那些	-3749
一封信	-3750
三年前	-3751
不舒服	-3752
什么吗	-3753
会发生	-3754
住在这	-3755
你可以	-3756
做了一	-3757
公交车	-3758
六点钟	-3759
准备好	-3760
博物馆	-3761
可能的	-3762
吃午饭	-3763
告诉他	-3764
唯一的	-3765
在这个	-3766
失去了	-3767
学英语	-3768
市中心	-3769
待多久	-3770
很大的	-3771
怎么办	-3772
我们就	-3773
我必须	-3774
晚饭后	-3775
有趣的	-3776
桌子上	-3777
点东西	-3778
的天气	-3779
的孩子	-3780
的工作	-3781
的男人	-3782
的错误	-3783
看到了	-3784
睡着了	-3785
知道你	-3786
知道的	-3787
红色的	-3788
给自己	-3789
跟我们	-3790
过马路	-3791
这件事	-3792
那样做	-3793
部电影	-3794
ants	-3795
book	-3796
dden	-3797
gers	-3798
iday	-3799
ized	-3800
ling	-3801
ushi	-3802
vers	-3803
▁ast	-3804
▁def	-3805
▁den	-3806
▁det	-3807
▁dry	-3808
▁esc	-3809
▁gun	-3810
▁hop	-3811
▁loc	-3812
▁oil	-3813
▁pos	-3814
▁pun	-3815
▁rid	-3816
▁sim	-3817
▁tie	-3818
▁wet	-3819
▁上个月	-3820
▁他们的	-3821
▁你打算	-3822
▁她已经	-3823
▁她总是	-3824
▁我不太	-3825
▁我买了	-3826
▁我决定	-3827
▁我只想	-3828
▁我听到	-3829
▁我承认	-3830
▁我通常	-3831
▁有些人	-3832
▁汤姆从	-3833
▁汤姆说	-3834
▁汤姆还	-3835
▁请你把	-3836
▁谢谢你	-3837
上床睡觉	-3838
不是真的	-3839
准备好了	-3840
尽力而为	-3841
并不总是	-3842
弹得很好	-3843
我的作业	-3844
河里游泳	-3845
电话号码	-3846
通过考试	-3847
ables	-3848
alent	-3849
arely	-3850
hamed	-3851
itted	-3852
mbers	-3853
olute	-3854
omach	-3855
urday	-3856
vious	-3857
▁acqu	-3858
▁bike	-3859
▁cars	-3860
▁draw	-3861
▁duty	-3862
▁fair	-3863
▁fash	-3864
▁fill	-3865
▁hole	-3866
▁hung	-3867
▁imag	-3868
▁inno	-3869
▁join	-3870
▁keys	-3871
▁lied	-3872
▁nerv	-3873
▁rang	-3874
▁requ	-3875
▁situ	-3876
▁size	-3877
▁你有任何	-3878
▁我买了一	-3879
▁我有一个	-3880
▁我认为你	-3881
▁汤姆可能	-3882
▁汤姆昨天	-3883
ainted	-3884
idence	-3885
overed	-3886
rested	-3887
▁admit	-3888
▁birds	-3889
▁cream	-3890
▁cried	-3891
▁drank	-3892
▁fence	-3893
▁games	-3894
▁heart	-3895
▁hobby	-3896
▁ideas	-3897
▁knife	-3898
▁magaz	-3899
▁moved	-3900
▁smart	-3901
▁songs	-3902
▁sound	-3903
▁stick	-3904
▁sushi	-3905
▁third	-3906
▁veget	-3907
▁weren	-3908
▁我认为我们	-3909
▁汤姆不喜欢	-3910
发生了什么事	-3911
▁absent	-3912
▁amount	-3913
▁begins	-3914
▁boring	-3915
▁cancer	-3916
▁effort	-3917
▁explan	-3918
▁german	-3919
▁giving	-3920
▁larger	-3921
▁murder	-3922
▁nearly	-3923
▁picked	-3924
▁planet	-3925
▁player	-3926
▁potato	-3927
▁prepar	-3928
▁recogn	-3929
▁reserv	-3930
▁sooner	-3931
▁spring	-3932
▁stamps	-3933
▁sudden	-3934
▁supper	-3935
▁thanks	-3936
▁ashamed	-3937
▁control	-3938
▁cottage	-3939
▁hearing	-3940
▁letters	-3941
▁nervous	-3942
▁painted	-3943
▁private	-3944
▁profess	-3945
▁promise	-3946
▁speaker	-3947
▁stomach	-3948
▁theater	-3949
▁willing	-3950
▁汤姆不知道玛丽	-3951
▁absolute	-3952
▁arrested	-3953
▁decision	-3954
▁divorced	-3955
▁planning	-3956
▁saturday	-3957
▁suitcase	-3958
▁surprise	-3959
▁traveled	-3960
▁classroom	-3961
▁president	-3962
▁situation	-3963
▁comfortable	-3964
▁explanation	-3965
▁mathematics	-3966
▁reservation	-3967
▁neighborhood	-3968
.”	-3969
CD	-3970
ef	-3971
uc	-3972
▁3	-3973
▁8	-3974
▁听	-3975
▁显	-3976
▁让	-3977
▁雪	-3978
一辆	-3979
三岁	-3980
上去	-3981
下去	-3982
不在	-3983
世纪	-3984
为止	-3985
举行	-3986
也许	-3987
书架	-3988
互相	-3989
人在	-3990
任务	-3991
体重	-3992
你不	-3993
使我	-3994
关灯	-3995
再说	-3996
写的	-3997
几岁	-3998
出租	-3999
列车	-4000
加哥	-4001
十岁	-4002
原因	-4003
厨师	-4004
可爱	-4005
后悔	-4006
周一	-4007
哈佛	-4008
嘲笑	-4009
圣诞	-4010
在公	-4011
在哪	-4012
在地	-4013
外出	-4014
夜晚	-4015
大量	-4016
太大	-4017
女士	-4018
好处	-4019
嫉妒	-4020
学了	-4021
它了	-4022
实话	-4023
对他	-4024
寻找	-4025
年龄	-4026
床上	-4027
开著	-4028
很美	-4029
得像	-4030
德语	-4031
忙吗	-4032
想吃	-4033
想念	-4034
想象	-4035
想起	-4036
我也	-4037
我很	-4038
我要	-4039
或许	-4040
打破	-4041
抵达	-4042
拜访	-4043
拿着	-4044
按钮	-4045
掉了	-4046
提议	-4047
故意	-4048
文件	-4049
无聊	-4050
日文	-4051
早就	-4052
明显	-4053
春天	-4054
是最	-4055
是用	-4056
是由	-4057
最高	-4058
有钱	-4059
服务	-4060
村庄	-4061
来越	-4062
步行	-4063
比萨	-4064
毛衣	-4065
没人	-4066
点了	-4067
爱你	-4068
玩得	-4069
班上	-4070
男生	-4071
监狱	-4072
看法	-4073
看这	-4074
睡了	-4075
程度	-4076
空气	-4077
穿着	-4078
练习	-4079
绳子	-4080
而且	-4081
联系	-4082
胡子	-4083
脚踏	-4084
自然	-4085
要做	-4086
讲话	-4087
试试	-4088
谈谈	-4089
责任	-4090
赞成	-4091
超市	-4092
跟着	-4093
跟著	-4094
辞职	-4095
这条	-4096
迟了	-4097
迟早	-4098
部分	-4099
锁门	-4100
错的	-4101
门口	-4102
问他	-4103
问你	-4104
阻止	-4105
领带	-4106
风筝	-4107
餐厅	-4108
饥饿	-4109
饮料	-4110
ago	-4111
bum	-4112
del	-4113
ilm	-4114
ney	-4115
ots	-4116
ugg	-4117
yed	-4118
▁di	-4119
▁vi	-4120
▁为了	-4121
▁京都	-4122
▁他刚	-4123
▁他去	-4124
▁他怕	-4125
▁他能	-4126
▁你本	-4127
▁可能	-4128
▁她对	-4129
▁她给	-4130
▁已经	-4131
▁我受	-4132
▁把书	-4133
▁显然	-4134
▁由于	-4135
▁电话	-4136
▁要是	-4137
▁警方	-4138
▁请在	-4139
▁非常	-4140
▁麻烦	-4141
一个月	-4142
一直在	-4143
上个月	-4144
不见了	-4145
义大利	-4146
但是我	-4147
你喜欢	-4148
写了一	-4149
到日本	-4150
到达了	-4151
厨房里	-4152
去睡觉	-4153
参加了	-4154
发生了	-4155
发生在	-4156
受欢迎	-4157
和两个	-4158
咖啡吗	-4159
喝咖啡	-4160
嗜好是	-4161
因为我	-4162
在医院	-4163
对你的	-4164
很危险	-4165
很多次	-4166
很重要	-4167
感冒了	-4168
慢一点	-4169
我可以	-4170
我所知	-4171
把你的	-4172
星期一	-4173
是个好	-4174
是多少	-4175
是甚么	-4176
是真的	-4177
是谁的	-4178
更喜欢	-4179
有一天	-4180
有耐心	-4181
本小说	-4182
来看我	-4183
栋房子	-4184
正确的	-4185
比我好	-4186
比昨天	-4187
游泳吗	-4188
生病了	-4189
的声音	-4190
的照片	-4191
的理由	-4192
直到我	-4193
看上去	-4194
看到他	-4195
芝加哥	-4196
见到他	-4197
见过她	-4198
起来了	-4199
越来越	-4200
跟我说	-4201
错过了	-4202
高中生	-4203
aced	-4204
afet	-4205
ased	-4206
athe	-4207
azed	-4208
ered	-4209
eted	-4210
fect	-4211
gram	-4212
ific	-4213
itch	-4214
kets	-4215
lied	-4216
oted	-4217
rect	-4218
reed	-4219
rist	-4220
uses	-4221
vard	-4222
▁cab	-4223
▁cow	-4224
▁doz	-4225
▁ins	-4226
▁jok	-4227
▁lic	-4228
▁los	-4229
▁mir	-4230
▁mis	-4231
▁ski	-4232
▁ter	-4233
▁tow	-4234
▁zoo	-4235
▁他常常	-4236
▁他很少	-4237
▁他无法	-4238
▁大家都	-4239
▁她昨天	-4240
▁如果我	-4241
▁我们还	-4242
▁我宁愿	-4243
▁我完全	-4244
▁我弟弟	-4245
▁我最近	-4246
▁我父母	-4247
▁我甚至	-4248
▁汤姆很	-4249
▁汤姆被	-4250
两个小时	-4251
他说的话	-4252
你的名字	-4253
借我你的	-4254
去波士顿	-4255
参加会议	-4256
在做什么	-4257
在这里等	-4258
很有意思	-4259
我的名字	-4260
我的工作	-4261
我的房间	-4262
所有的人	-4263
是危险的	-4264
桌子底下	-4265
永远不会	-4266
盐递给我	-4267
离开这个	-4268
这个消息	-4269
conom	-4270
icago	-4271
icken	-4272
iling	-4273
ional	-4274
itive	-4275
ortun	-4276
right	-4277
▁area	-4278
▁carp	-4279
▁conv	-4280
▁dare	-4281
▁dire	-4282
▁ears	-4283
▁film	-4284
▁gold	-4285
▁held	-4286
▁jeal	-4287
▁joke	-4288
▁mach	-4289
▁mill	-4290
▁prov	-4291
▁pull	-4292
▁race	-4293
▁rice	-4294
▁rope	-4295
▁save	-4296
▁spec	-4297
▁stra	-4298
▁tour	-4299
▁type	-4300
▁view	-4301
▁yard	-4302
▁他把他的	-4303
▁他说的话	-4304
▁你最喜欢	-4305
▁她给了我	-4306
▁我不明白	-4307
▁我什么都	-4308
▁我们不能	-4309
▁我们现在	-4310
▁我很抱歉	-4311
▁我把我的	-4312
▁我的母亲	-4313
▁我的父亲	-4314
▁我还没有	-4315
▁汤姆不是	-4316
▁汤姆需要	-4317
▁这是你的	-4318
▁这是我的	-4319
stairs	-4320
▁album	-4321
▁aware	-4322
▁becom	-4323
▁blame	-4324
▁blood	-4325
▁brave	-4326
▁cards	-4327
▁cause	-4328
▁cheap	-4329
▁chess	-4330
▁cloud	-4331
▁fever	-4332
▁fifty	-4333
▁impro	-4334
▁invol	-4335
▁mater	-4336
▁mouth	-4337
▁peace	-4338
▁piece	-4339
▁polit	-4340
▁produ	-4341
▁relax	-4342
▁rumor	-4343
▁share	-4344
▁slept	-4345
▁stars	-4346
▁stock	-4347
▁stone	-4348
▁stops	-4349
▁talks	-4350
▁threw	-4351
▁你很快就会	-4352
▁我不知道你	-4353
▁我不能忍受	-4354
▁我今天早上	-4355
什么时候开始	-4356
完成我的作业	-4357
ibility	-4358
▁animal	-4359
▁button	-4360
▁charge	-4361
▁choice	-4362
▁christ	-4363
▁course	-4364
▁dishes	-4365
▁econom	-4366
▁flying	-4367
▁friday	-4368
▁intern	-4369
▁master	-4370
▁member	-4371
▁salary	-4372
▁scient	-4373
▁shower	-4374
▁single	-4375
▁slight	-4376
▁struck	-4377
▁taught	-4378
▁thinks	-4379
▁toward	-4380
▁trains	-4381
▁warned	-4382
▁washed	-4383
▁accused	-4384
▁advised	-4385
▁appoint	-4386
▁bedroom	-4387
▁century	-4388
▁chicago	-4389
▁chicken	-4390
▁clearly	-4391
▁correct	-4392
▁dressed	-4393
▁elected	-4394
▁express	-4395
▁harvard	-4396
▁jealous	-4397
▁jogging	-4398
▁managed	-4399
▁message	-4400
▁million	-4401
▁program	-4402
▁reached	-4403
▁singing	-4404
▁studies	-4405
▁subject	-4406
▁sweater	-4407
▁wedding	-4408
▁accepted	-4409
▁believes	-4410
▁borrowed	-4411
▁confused	-4412
▁followed	-4413
▁friendly	-4414
▁headache	-4415
▁opportun	-4416
▁pleasure	-4417
▁promised	-4418
▁shopping	-4419
▁teaching	-4420
▁certainly	-4421
▁concerned	-4422
▁daughters	-4423
▁policeman	-4424
▁translate	-4425
▁traveling	-4426
▁absolutely	-4427
▁photograph	-4428
?”	-4429
bs	-4430
nt	-4431
so	-4432
ye	-4433
▁7	-4434
▁十	-4435
▁是	-4436
▁树	-4437
▁老	-4438
▁起	-4439
▁进	-4440
▁钱	-4441
一件	-4442
一边	-4443
七点	-4444
下个	-4445
下车	-4446
不懂	-4447
中我	-4448
中最	-4449
举起	-4450
乡下	-4451
买的	-4452
了三	-4453
了伤	-4454
五点	-4455
亚洲	-4456
人们	-4457
人去	-4458
以至	-4459
会有	-4460
伤了	-4461
体育	-4462
依赖	-4463
保护	-4464
信守	-4465
信息	-4466
公寓	-4467
关上	-4468
其实	-4469
再做	-4470
印度	-4471
厕所	-4472
反了	-4473
受到	-4474
变得	-4475
叫醒	-4476
吃惊	-4477
吃鱼	-4478
各种	-4479
否认	-4480
听我	-4481
囚犯	-4482
图片	-4483
地上	-4484
地球	-4485
坚持	-4486
增加	-4487
士兵	-4488
大雨	-4489
天空	-4490
太难	-4491
头痛	-4492
奶油	-4493
姑姑	-4494
娃娃	-4495
婚礼	-4496
实际	-4497
家庭	-4498
家里	-4499
对待	-4500
小屋	-4501
小的	-4502
尔夫	-4503
左右	-4504
左转	-4505
差点	-4506
带到	-4507
广播	-4508
座桥	-4509
开学	-4510
当然	-4511
彼此	-4512
得太	-4513
忙于	-4514
态度	-4515
慢跑	-4516
成员	-4517
成的	-4518
手指	-4519
手机	-4520
把你	-4521
把我	-4522
护照	-4523
捕了	-4524
控制	-4525
携带	-4526
摩托	-4527
放下	-4528
放松	-4529
政治	-4530
数到	-4531
整夜	-4532
方便	-4533
早晨	-4534
是好	-4535
月份	-4536
有时	-4537
有益	-4538
未来	-4539
来接	-4540
根据	-4541
梦想	-4542
歌手	-4543
洗手	-4544
活着	-4545
流行	-4546
测验	-4547
海滩	-4548
渴望	-4549
演员	-4550
演讲	-4551
熟悉	-4552
爱他	-4553
牙医	-4554
玩笑	-4555
玻璃	-4556
理了	-4557
理论	-4558
生意	-4559
的主	-4560
的大	-4561
的最	-4562
的车	-4563
的首	-4564
盯著	-4565
石油	-4566
礼拜	-4567
空间	-4568
笔钱	-4569
紧急	-4570
经济	-4571
缺乏	-4572
羞耻	-4573
耳朵	-4574
能做	-4575
花园	-4576
花瓶	-4577
萄酒	-4578
蔬菜	-4579
表现	-4580
表示	-4581
表达	-4582
袋子	-4583
袜子	-4584
裙子	-4585
要我	-4586
讯息	-4587
设计	-4588
说我	-4589
谈话	-4590
谣言	-4591
购物	-4592
起了	-4593
身体	-4594
这位	-4595
进入	-4596
进行	-4597
都很	-4598
醉了	-4599
闻名	-4600
阿姨	-4601
雨伞	-4602
面前	-4603
餐馆	-4604
饱了	-4605
骗了	-4606
aps	-4607
bey	-4608
ero	-4609
ert	-4610
gic	-4611
hol	-4612
mas	-4613
oid	-4614
per	-4615
uff	-4616
ule	-4617
▁em	-4618
▁ko	-4619
▁ra	-4620
▁他以	-4621
▁他想	-4622
▁他要	-4623
▁你用	-4624
▁几乎	-4625
▁在你	-4626
▁天气	-4627
▁她从	-4628
▁她是	-4629
▁她问	-4630
▁妈妈	-4631
▁学生	-4632
▁小心	-4633
▁当他	-4634
▁很多	-4635
▁我为	-4636
▁我来	-4637
▁我等	-4638
▁我跟	-4639
▁生活	-4640
▁美国	-4641
▁请您	-4642
▁这位	-4643
▁这种	-4644
▁问题	-4645
一个小	-4646
一杯水	-4647
一起来	-4648
三个月	-4649
上大学	-4650
上有个	-4651
不需要	-4652
了汤姆	-4653
了许多	-4654
五分钟	-4655
五点钟	-4656
人去请	-4657
什么可	-4658
什么好	-4659
从哪里	-4660
他们会	-4661
他会来	-4662
以至于	-4663
做不了	-4664
做这事	-4665
充满了	-4666
出租车	-4667
前几天	-4668
动物园	-4669
半小时	-4670
去散步	-4671
去野餐	-4672
发现了	-4673
吃东西	-4674
名单上	-4675
哪一个	-4676
回家了	-4677
在一起	-4678
块石头	-4679
完成了	-4680
尽可能	-4681
工作吗	-4682
差不多	-4683
帮助他	-4684
帮助你	-4685
帮我们	-4686
很多书	-4687
很漂亮	-4688
很简单	-4689
得走了	-4690
怎么想	-4691
想要的	-4692
感谢你	-4693
我不会	-4694
我的车	-4695
我需要	-4696
搭飞机	-4697
是一名	-4698
是一种	-4699
是因为	-4700
是她的	-4701
暴风雨	-4702
更努力	-4703
更多的	-4704
有一点	-4705
有多少	-4706
有没有	-4707
有许多	-4708
比我的	-4709
没关系	-4710
派对上	-4711
游世界	-4712
爬上了	-4713
百分之	-4714
的学生	-4715
的意思	-4716
的方式	-4717
的男孩	-4718
的食物	-4719
真是太	-4720
礼貌的	-4721
第一个	-4722
给你的	-4723
美好的	-4724
英语说	-4725
葡萄酒	-4726
被车撞	-4727
计程车	-4728
让玛丽	-4729
踢足球	-4730
这么多	-4731
进房间	-4732
迟早会	-4733
那么做	-4734
那么多	-4735
里有一	-4736
高尔夫	-4737
aked	-4738
alue	-4739
ayed	-4740
cell	-4741
fers	-4742
glar	-4743
ials	-4744
iced	-4745
ires	-4746
ists	-4747
ldom	-4748
llig	-4749
lope	-4750
ngue	-4751
oned	-4752
orcy	-4753
resh	-4754
rets	-4755
roat	-4756
stem	-4757
town	-4758
vest	-4759
▁anx	-4760
▁cla	-4761
▁fig	-4762
▁fix	-4763
▁god	-4764
▁haw	-4765
▁hey	-4766
▁maj	-4767
▁mid	-4768
▁pou	-4769
▁raw	-4770
▁var	-4771
▁从这里	-4772
▁他今天	-4773
▁他应该	-4774
▁他开始	-4775
▁他是我	-4776
▁他正在	-4777
▁他知道	-4778
▁他经常	-4779
▁他说他	-4780
▁你今晚	-4781
▁你可能	-4782
▁你和我	-4783
▁你已经	-4784
▁你愿意	-4785
▁你没有	-4786
▁公园里	-4787
▁她照顾	-4788
▁她非常	-4789
▁我今晚	-4790
▁我住在	-4791
▁我刚刚	-4792
▁我和她	-4793
▁我建议	-4794
▁我想买	-4795
▁我感觉	-4796
▁我有个	-4797
▁我有点	-4798
▁我母亲	-4799
▁我让她	-4800
▁房间里	-4801
▁最近的	-4802
▁汤姆对	-4803
▁花园里	-4804
▁这只是	-4805
▁这只狗	-4806
▁这是谁	-4807
▁这条路	-4808
一个人去	-4809
世界上最	-4810
买了一台	-4811
了很多钱	-4812
他的名字	-4813
休息一下	-4814
住在哪里	-4815
住在这里	-4816
做了一个	-4817
六点起床	-4818
写一封信	-4819
努力工作	-4820
多长时间	-4821
想要什么	-4822
感到羞耻	-4823
感到非常	-4824
我不知道	-4825
派人去请	-4826
浪费时间	-4827
甚么时候	-4828
的时候了	-4829
看起来像	-4830
知道真相	-4831
等一会儿	-4832
给了我们	-4833
要做甚么	-4834
让我知道	-4835
该做什么	-4836
说英语吗	-4837
这个城市	-4838
这个计划	-4839
aired	-4840
anted	-4841
ative	-4842
avior	-4843
enter	-4844
iliar	-4845
inted	-4846
ipped	-4847
irsty	-4848
onely	-4849
otect	-4850
rible	-4851
under	-4852
ushed	-4853
▁ages	-4854
▁also	-4855
▁bark	-4856
▁bear	-4857
▁bite	-4858
▁blue	-4859
▁boil	-4860
▁dent	-4861
▁dest	-4862
▁drop	-4863
▁earn	-4864
▁eats	-4865
▁educ	-4866
▁enem	-4867
▁fear	-4868
▁feet	-4869
▁form	-4870
▁fort	-4871
▁golf	-4872
▁hang	-4873
▁iron	-4874
▁kiss	-4875
▁land	-4876
▁lead	-4877
▁legs	-4878
▁lies	-4879
▁line	-4880
▁math	-4881
▁menu	-4882
▁note	-4883
▁obey	-4884
▁perm	-4885
▁pity	-4886
▁pond	-4887
▁rent	-4888
▁roll	-4889
▁roof	-4890
▁runs	-4891
▁russ	-4892
▁sale	-4893
▁sand	-4894
▁sang	-4895
▁sear	-4896
▁skin	-4897
▁sock	-4898
▁sort	-4899
▁viol	-4900
▁他不喜欢	-4901
▁他们都是	-4902
▁他和他的	-4903
▁你知道她	-4904
▁我可以用	-4905
▁我对他的	-4906
▁我有很多	-4907
▁我的房子	-4908
▁我的祖父	-4909
▁据我所知	-4910
▁汤姆不会	-4911
▁汤姆不能	-4912
▁汤姆今天	-4913
▁汤姆和我	-4914
▁汤姆已经	-4915
▁汤姆应该	-4916
▁汤姆非常	-4917
▁这是什么	-4918
了一个小时	-4919
什么时候到	-4920
住在波士顿	-4921
和你一起去	-4922
回家的路上	-4923
打电话给你	-4924
找不到我的	-4925
是不可能的	-4926
是不礼貌的	-4927
是什么意思	-4928
的时候不要	-4929
▁board	-4930
▁colds	-4931
▁costs	-4932
▁crazy	-4933
▁doubt	-4934
▁exams	-4935
▁explo	-4936
▁flood	-4937
▁fresh	-4938
▁funny	-4939
▁goods	-4940
▁hurts	-4941
▁lying	-4942
▁match	-4943
▁model	-4944
▁monke	-4945
▁rainy	-4946
▁shake	-4947
▁shall	-4948
▁stole	-4949
▁stood	-4950
▁value	-4951
▁weeks	-4952
▁你知道怎么	-4953
▁你能告诉我	-4954
▁我不知道她	-4955
▁我非常喜欢	-4956
派人去请医生	-4957
ational	-4958
erature	-4959
orcycle	-4960
▁attack	-4961
▁breath	-4962
▁bucket	-4963
▁burned	-4964
▁commun	-4965
▁conven	-4966
▁entire	-4967
▁forest	-4968
▁lately	-4969
▁lights	-4970
▁lonely	-4971
▁losing	-4972
▁mirror	-4973
▁moving	-4974
▁nature	-4975
▁orange	-4976
▁poured	-4977
▁remain	-4978
▁remind	-4979
▁repair	-4980
▁result	-4981
▁retire	-4982
▁season	-4983
▁seldom	-4984
▁singer	-4985
▁skiing	-4986
▁system	-4987
▁thirty	-4988
▁throat	-4989
▁tongue	-4990
▁unlike	-4991
▁worker	-4992
▁writer	-4993
▁allowed	-4994
▁anxious	-4995
▁belongs	-4996
▁burglar	-4997
▁captain	-4998
▁courage	-4999
▁delayed	-5000
▁fashion	-5001
▁happens	-5002
▁healthy	-5003
▁illness	-5004
▁italian	-5005
▁license	-5006
▁mistook	-5007
▁perfect	-5008
▁protect	-5009
▁provide	-5010
▁special	-5011
▁suppose	-5012
▁teaches	-5013
▁thirsty	-5014
▁behavior	-5015
▁careless	-5016
▁contract	-5017
▁downtown	-5018
▁familiar	-5019
▁favorite	-5020
▁intellig	-5021
▁invented	-5022
▁involved	-5023
▁laughing	-5024
▁listened	-5025
▁painting	-5026
▁passport	-5027
▁patience	-5028
▁prepared	-5029
▁prisoner	-5030
▁repaired	-5031
▁straight	-5032
▁apartment	-5033
▁assistant	-5034
▁christmas	-5035
▁intention	-5036
▁lightning	-5037
▁acquainted	-5038
▁collecting	-5039
▁department	-5040
▁discovered	-5041
▁experience	-5042
▁motorcycle	-5043
▁particular	-5044
▁understood	-5045
▁vegetables	-5046
▁appointment	-5047
▁examination	-5048
12	-5049
5.	-5050
cl	-5051
cr	-5052
mo	-5053
ra	-5054
to	-5055
uz	-5056
▁万	-5057
▁为	-5058
▁嘿	-5059
▁新	-5060
▁无	-5061
▁桌	-5062
▁虽	-5063
▁金	-5064
▁问	-5065
▁鸟	-5066
一场	-5067
一生	-5068
一般	-5069
三十	-5070
上升	-5071
上次	-5072
下棋	-5073
下楼	-5074
不住	-5075
不像	-5076
不再	-5077
不出	-5078
两岁	-5079
严重	-5080
个澡	-5081
为生	-5082
主修	-5083
乐意	-5084
乘客	-5085
书籍	-5086
争论	-5087
交谈	-5088
产品	-5089
亲自	-5090
人吗	-5091
人群	-5092
介绍	-5093
仍然	-5094
他来	-5095
令人	-5096
位子	-5097
作为	-5098
你想	-5099
信封	-5100
信心	-5101
做事	-5102
停留	-5103
偶尔	-5104
傻子	-5105
充分	-5106
光临	-5107
全都	-5108
公共	-5109
共同	-5110
关了	-5111
再见	-5112
农场	-5113
决于	-5114
冷饮	-5115
减肥	-5116
到底	-5117
前进	-5118
加入	-5119
动了	-5120
匹马	-5121
卧室	-5122
印象	-5123
压力	-5124
发明	-5125
只有	-5126
叫我	-5127
右转	-5128
司机	-5129
名的	-5130
后面	-5131
向我	-5132
员会	-5133
周围	-5134
味道	-5135
和平	-5136
喉咙	-5137
回信	-5138
回去	-5139
困惑	-5140
在四	-5141
在沙	-5142
地区	-5143
坐下	-5144
坐着	-5145
堂上	-5146
墙上	-5147
夏威	-5148
外语	-5149
大衣	-5150
天黑	-5151
失望	-5152
她要	-5153
好久	-5154
姊姊	-5155
威胁	-5156
子上	-5157
寒冷	-5158
导致	-5159
尊敬	-5160
小提	-5161
就在	-5162
屈服	-5163
岁了	-5164
工厂	-5165
工程	-5166
市场	-5167
帐单	-5168
带我	-5169
干嘛	-5170
幸运	-5171
弄丢	-5172
影响	-5173
很少	-5174
很热	-5175
很远	-5176
律师	-5177
德国	-5178
怕死	-5179
意识	-5180
愚蠢	-5181
感受	-5182
慢慢	-5183
成绩	-5184
我家	-5185
我该	-5186
手提	-5187
手术	-5188
手里	-5189
抚养	-5190
报价	-5191
披萨	-5192
招呼	-5193
指望	-5194
提出	-5195
提前	-5196
撒谎	-5197
支付	-5198
教授	-5199
文章	-5200
新闻	-5201
方向	-5202
时钟	-5203
星星	-5204
是在	-5205
晚了	-5206
机器	-5207
林里	-5208
样的	-5209
格兰	-5210
桌上	-5211
欣赏	-5212
毁了	-5213
每年	-5214
气候	-5215
池塘	-5216
沉默	-5217
海边	-5218
清扫	-5219
温暖	-5220
游得	-5221
灰尘	-5222
烦了	-5223
爷爷	-5224
犯错	-5225
猴子	-5226
现金	-5227
班牙	-5228
理发	-5229
瓶子	-5230
生产	-5231
用功	-5232
申请	-5233
画的	-5234
病人	-5235
痛苦	-5236
的好	-5237
的小	-5238
的那	-5239
目标	-5240
看书	-5241
真正	-5242
研究	-5243
神户	-5244
程序	-5245
窃贼	-5246
窗口	-5247
等到	-5248
答应	-5249
篮球	-5250
红色	-5251
美的	-5252
羡慕	-5253
老实	-5254
而言	-5255
肩膀	-5256
自杀	-5257
自豪	-5258
舅舅	-5259
艘船	-5260
英里	-5261
英雄	-5262
茶吗	-5263
菜单	-5264
行为	-5265
街上	-5266
被人	-5267
覆盖	-5268
见我	-5269
观点	-5270
规矩	-5271
视力	-5272
说一	-5273
说明	-5274
说服	-5275
读了	-5276
读过	-5277
谋杀	-5278
赢了	-5279
超过	-5280
跑了	-5281
车祸	-5282
还在	-5283
这件	-5284
这间	-5285
送到	-5286
选手	-5287
通的	-5288
道理	-5289
那件	-5290
部门	-5291
都没	-5292
错过	-5293
镇上	-5294
队长	-5295
零钱	-5296
非洲	-5297
靠近	-5298
预定	-5299
预约	-5300
预订	-5301
饼干	-5302
:00	-5303
?”“	-5304
acy	-5305
ade	-5306
aii	-5307
ale	-5308
ama	-5309
amm	-5310
app	-5311
arm	-5312
ask	-5313
bye	-5314
emp	-5315
hib	-5316
ica	-5317
ins	-5318
nal	-5319
omp	-5320
oon	-5321
ple	-5322
pre	-5323
rat	-5324
rem	-5325
rew	-5326
rib	-5327
rup	-5328
set	-5329
str	-5330
tle	-5331
tly	-5332
uri	-5333
uzz	-5334
yer	-5335
▁ca	-5336
▁ow	-5337
▁ur	-5338
▁一些	-5339
▁世界	-5340
▁事故	-5341
▁什么	-5342
▁他为	-5343
▁他喝	-5344
▁他打	-5345
▁你太	-5346
▁公车	-5347
▁只有	-5348
▁只要	-5349
▁哪本	-5350
▁天空	-5351
▁太阳	-5352
▁宝宝	-5353
▁尽管	-5354
▁巴士	-5355
▁很少	-5356
▁快点	-5357
▁我买	-5358
▁我向	-5359
▁我和	-5360
▁我太	-5361
▁我就	-5362
▁我打	-5363
▁我本	-5364
▁我欠	-5365
▁我用	-5366
▁我说	-5367
▁抱歉	-5368
▁汽车	-5369
▁游泳	-5370
▁罗马	-5371
▁老人	-5372
▁虽然	-5373
▁起初	-5374
▁还有	-5375
▁这件	-5376
▁这对	-5377
▁这药	-5378
▁进来	-5379
一个好	-5380
一只猫	-5381
一定很	-5382
一定要	-5383
下了一	-5384
下雪了	-5385
不会做	-5386
不会来	-5387
不在家	-5388
不想去	-5389
不能来	-5390
不重要	-5391
两年前	-5392
也没有	-5393
了一下	-5394
了玛丽	-5395
从来不	-5396
他没有	-5397
任何一	-5398
会回来	-5399
会开车	-5400
伟大的	-5401
你的事	-5402
你自己	-5403
你认为	-5404
借给我	-5405
值得一	-5406
做作业	-5407
停下来	-5408
其他人	-5409
其他的	-5410
几分钟	-5411
几点钟	-5412
出来了	-5413
出生的	-5414
到你的	-5415
到这里	-5416
半开始	-5417
去美国	-5418
取决于	-5419
另一个	-5420
同一个	-5421
听我的	-5422
和你的	-5423
啤酒吗	-5424
回家吗	-5425
在晚上	-5426
地利用	-5427
夏威夷	-5428
大学生	-5429
她妈妈	-5430
委员会	-5431
孩子的	-5432
小提琴	-5433
工程师	-5434
帮助我	-5435
建筑物	-5436
开车去	-5437
开车送	-5438
很喜欢	-5439
很多的	-5440
很快乐	-5441
很快就	-5442
很惊讶	-5443
很无聊	-5444
很棒的	-5445
得到了	-5446
总是在	-5447
成功的	-5448
我去了	-5449
我自己	-5450
手提箱	-5451
摩托车	-5452
收到了	-5453
放风筝	-5454
新衣服	-5455
日本人	-5456
是他的	-5457
是你们	-5458
是你的	-5459
是汤姆	-5460
更小心	-5461
最高的	-5462
有一场	-5463
有一间	-5464
有兴趣	-5465
有用的	-5466
有空吗	-5467
本关于	-5468
杯咖啡	-5469
架飞机	-5470
柳橙汁	-5471
正忙著	-5472
毕业了	-5473
汤姆吗	-5474
汤姆是	-5475
洗个澡	-5476
火车上	-5477
用英语	-5478
电视机	-5479
的动物	-5480
的国家	-5481
的房间	-5482
的机会	-5483
的衣服	-5484
的语言	-5485
知道他	-5486
离婚了	-5487
种语言	-5488
科学家	-5489
等一下	-5490
结束了	-5491
给了他	-5492
给他的	-5493
给我看	-5494
聚会上	-5495
脚踏车	-5496
被偷了	-5497
西班牙	-5498
要多久	-5499
要离开	-5500
见汤姆	-5501
见过他	-5502
试一次	-5503
误认为	-5504
说日语	-5505
说话了	-5506
说话吗	-5507
读英语	-5508
课堂上	-5509
跟我来	-5510
这个吗	-5511
这句话	-5512
逮捕了	-5513
那本书	-5514
都可以	-5515
问汤姆	-5516
问题的	-5517
非常好	-5518
马上就	-5519
,000	-5520
aped	-5521
come	-5522
elve	-5523
erve	-5524
gest	-5525
haps	-5526
iche	-5527
iers	-5528
ingu	-5529
irts	-5530
ises	-5531
lley	-5532
mory	-5533
plan	-5534
pper	-5535
rodu	-5536
semb	-5537
teen	-5538
ters	-5539
ural	-5540
▁bat	-5541
▁bes	-5542
▁blo	-5543
▁deg	-5544
▁env	-5545
▁fat	-5546
▁fed	-5547
▁hum	-5548
▁jud	-5549
▁lat	-5550
▁nag	-5551
▁nar	-5552
▁sea	-5553
▁shy	-5554
▁sou	-5555
▁suf	-5556
▁tur	-5557
▁他一直	-5558
▁他习惯	-5559
▁他以前	-5560
▁他们有	-5561
▁他们没	-5562
▁你做了	-5563
▁你去过	-5564
▁你想再	-5565
▁你曾经	-5566
▁你的狗	-5567
▁你看过	-5568
▁别忘了	-5569
▁在美国	-5570
▁她住在	-5571
▁她几乎	-5572
▁她可能	-5573
▁她说她	-5574
▁富士山	-5575
▁我不再	-5576
▁我们去	-5577
▁我们想	-5578
▁我们没	-5579
▁我听见	-5580
▁我听说	-5581
▁我在找	-5582
▁我对你	-5583
▁我就是	-5584
▁我忘了	-5585
▁我总是	-5586
▁我想去	-5587
▁我担心	-5588
▁我给了	-5589
▁我试著	-5590
▁我请他	-5591
▁我还没	-5592
▁昨晚我	-5593
▁汤姆要	-5594
▁汤姆问	-5595
▁请帮我	-5596
▁这可能	-5597
▁这是个	-5598
▁这里有	-5599
▁那不是	-5600
▁那就是	-5601
▁那本书	-5602
一下你的	-5603
一下我的	-5604
中受了伤	-5605
他的父亲	-5606
你来决定	-5607
保持安静	-5608
做任何事	-5609
免费得到	-5610
公共汽车	-5611
关你的事	-5612
再见到你	-5613
参加派对	-5614
吃过午饭	-5615
听收音机	-5616
在公园里	-5617
寄这封信	-5618
对你来说	-5619
岁的时候	-5620
很多时间	-5621
很多次了	-5622
很长时间	-5623
我不赞成	-5624
是个孩子	-5625
是我们的	-5626
没有办法	-5627
玩得开心	-5628
现在正在	-5629
甚么也没	-5630
的东西吗	-5631
的是什么	-5632
这个秘密	-5633
这样的事	-5634
这样的人	-5635
ample	-5636
ances	-5637
anish	-5638
apers	-5639
cious	-5640
cture	-5641
ences	-5642
enery	-5643
ffect	-5644
icate	-5645
icked	-5646
ified	-5647
inced	-5648
ineer	-5649
ipate	-5650
ledge	-5651
ments	-5652
ories	-5653
ouses	-5654
riage	-5655
▁anno	-5656
▁arri	-5657
▁bags	-5658
▁cond	-5659
▁cred	-5660
▁crit	-5661
▁curi	-5662
▁enve	-5663
▁farm	-5664
▁fing	-5665
▁flew	-5666
▁fond	-5667
▁goal	-5668
▁hero	-5669
▁hide	-5670
▁infl	-5671
▁jobs	-5672
▁kids	-5673
▁king	-5674
▁kite	-5675
▁kobe	-5676
▁lugg	-5677
▁pack	-5678
▁pens	-5679
▁poss	-5680
▁pron	-5681
▁push	-5682
▁puzz	-5683
▁rare	-5684
▁rely	-5685
▁resc	-5686
▁risk	-5687
▁shin	-5688
▁smil	-5689
▁task	-5690
▁toys	-5691
▁vase	-5692
▁他不知道	-5693
▁他们已经	-5694
▁他有一个	-5695
▁他看起来	-5696
▁你介意我	-5697
▁你在哪里	-5698
▁你想知道	-5699
▁你把我的	-5700
▁她现在忙	-5701
▁如果明天	-5702
▁如果汤姆	-5703
▁我不习惯	-5704
▁我不在乎	-5705
▁我不想再	-5706
▁我们需要	-5707
▁我对汤姆	-5708
▁我正在找	-5709
▁我没时间	-5710
▁我现在在	-5711
▁我的兄弟	-5712
▁我的房间	-5713
▁我看见他	-5714
▁我知道我	-5715
▁汤姆不想	-5716
▁汤姆告诉	-5717
▁汤姆喜欢	-5718
▁汤姆希望	-5719
▁汤姆正在	-5720
▁这个问题	-5721
▁这位老人	-5722
再次见到你	-5723
可能会下雨	-5724
所有的人都	-5725
打电话给我	-5726
条河里游泳	-5727
的人说英语	-5728
的女孩是谁	-5729
antage	-5730
ceived	-5731
ealing	-5732
engers	-5733
friend	-5734
omeday	-5735
ording	-5736
▁artic	-5737
▁avoid	-5738
▁blind	-5739
▁brush	-5740
▁buses	-5741
▁dirty	-5742
▁flows	-5743
▁girlf	-5744
▁gover	-5745
▁grass	-5746
▁group	-5747
▁incre	-5748
▁india	-5749
▁jokes	-5750
▁lucky	-5751
▁meant	-5752
▁miles	-5753
▁offic	-5754
▁purse	-5755
▁sales	-5756
▁scold	-5757
▁seats	-5758
▁serve	-5759
▁shout	-5760
▁south	-5761
▁space	-5762
▁speed	-5763
▁stare	-5764
▁sweet	-5765
▁treat	-5766
▁turns	-5767
▁usual	-5768
▁wears	-5769
▁worst	-5770
▁你可以选择	-5771
▁你最好不要	-5772
▁我的嗜好是	-5773
▁汤姆给玛丽	-5774
▁请让我看看	-5775
盐递给我好吗	-5776
钢琴弹得很好	-5777
ficient	-5778
inguish	-5779
▁africa	-5780
▁agreed	-5781
▁amazed	-5782
▁appear	-5783
▁barely	-5784
▁butter	-5785
▁buying	-5786
▁caused	-5787
▁clouds	-5788
▁coward	-5789
▁curren	-5790
▁deeply	-5791
▁drives	-5792
▁effect	-5793
▁fright	-5794
▁handle	-5795
▁hawaii	-5796
▁height	-5797
▁hiding	-5798
▁houses	-5799
▁invest	-5800
▁island	-5801
▁lawyer	-5802
▁market	-5803
▁memory	-5804
▁rained	-5805
▁record	-5806
▁regret	-5807
▁solved	-5808
▁stands	-5809
▁strict	-5810
▁subway	-5811
▁talent	-5812
▁temper	-5813
▁theory	-5814
▁twelve	-5815
▁violin	-5816
▁你为什么这么	-5817
▁我不认为汤姆	-5818
▁我找不到我的	-5819
▁汤姆知道玛丽	-5820
▁airplan	-5821
▁applied	-5822
▁calling	-5823
▁cleaned	-5824
▁cleared	-5825
▁convers	-5826
▁deepest	-5827
▁dentist	-5828
▁divided	-5829
▁dropped	-5830
▁example	-5831
▁excited	-5832
▁excuses	-5833
▁factory	-5834
▁forever	-5835
▁forgive	-5836
▁fortune	-5837
▁germany	-5838
▁goodbye	-5839
▁greeted	-5840
▁impress	-5841
▁introdu	-5842
▁largest	-5843
▁luggage	-5844
▁machine	-5845
▁members	-5846
▁natural	-5847
▁neither	-5848
▁obvious	-5849
▁percent	-5850
▁perhaps	-5851
▁quality	-5852
▁scenery	-5853
▁science	-5854
▁snowing	-5855
▁someday	-5856
▁spanish	-5857
▁support	-5858
▁你很快就会习惯	-5859
▁admitted	-5860
▁counting	-5861
▁engineer	-5862
▁envelope	-5863
▁eyesight	-5864
▁innocent	-5865
▁marriage	-5866
▁mistaken	-5867
▁positive	-5868
▁potatoes	-5869
▁practice	-5870
▁pressure	-5871
▁relative	-5872
▁soldiers	-5873
▁stealing	-5874
▁unlikely	-5875
▁visiting	-5876
▁according	-5877
▁admission	-5878
▁americans	-5879
▁beginning	-5880
▁buildings	-5881
▁condition	-5882
▁convinced	-5883
▁happening	-5884
▁happiness	-5885
▁knowledge	-5886
▁materials	-5887
▁neighbors	-5888
▁ourselves	-5889
▁preparing	-5890
▁succeeded	-5891
▁suggested	-5892
▁basketball	-5893
▁completely	-5894
▁convenient	-5895
▁discussion	-5896
▁girlfriend	-5897
▁passengers	-5898
▁programmer	-5899
▁distinguish	-5900
▁electricity	-5901
▁opportunity	-5902
▁understands	-5903
▁conversation	-5904
18	-5905
50	-5906
55	-5907
fo	-5908
go	-5909
hn	-5910
ju	-5911
ku	-5912
ls	-5913
▁.	-5914
▁2	-5915
▁9	-5916
▁?	-5917
▁六	-5918
▁冷	-5919
▁即	-5920
▁可	-5921
▁屋	-5922
▁山	-5923
▁数	-5924
▁正	-5925
▁此	-5926
▁河	-5927
▁祝	-5928
▁说	-5929
▁车	-5930
▁长	-5931
▁门	-5932
▁闭	-5933
▁随	-5934
一人	-5935
三明	-5936
上是	-5937
上涨	-5938
上签	-5939
上课	-5940
不及	-5941
不如	-5942
不忙	-5943
不用	-5944
两倍	-5945
个好	-5946
为他	-5947
为荣	-5948
主义	-5949
主席	-5950
之中	-5951
之内	-5952
之处	-5953
乐观	-5954
书还	-5955
买下	-5956
了新	-5957
事了	-5958
五十	-5959
五年	-5960
五月	-5961
些事	-5962
交流	-5963
亲戚	-5964
人了	-5965
人生	-5966
人看	-5967
从没	-5968
他所	-5969
他有	-5970
他能	-5971
付账	-5972
令我	-5973
价值	-5974
企图	-5975
休假	-5976
伙伴	-5977
伤害	-5978
伤心	-5979
但她	-5980
体温	-5981
你去	-5982
你就	-5983
你该	-5984
信用	-5985
借口	-5986
假的	-5987
做不	-5988
停车	-5989
像你	-5990
克力	-5991
兔子	-5992
入场	-5993
公平	-5994
关在	-5995
兴奋	-5996
兼职	-5997
写下	-5998
写作	-5999
写字	-6000
决心	-6001
几次	-6002
出差	-6003
剩下	-6004
功于	-6005
勇气	-6006
包裹	-6007
区别	-6008
十个	-6009
单身	-6010
卡车	-6011
即将	-6012
厉害	-6013
去买	-6014
参观	-6015
友善	-6016
发上	-6017
发言	-6018
发誓	-6019
古屋	-6020
右边	-6021
合同	-6022
吸引	-6023
呆了	-6024
员工	-6025
咳嗽	-6026
哭泣	-6027
唱片	-6028
善于	-6029
喝了	-6030
国王	-6031
圆的	-6032
土豆	-6033
在三	-6034
在他	-6035
在她	-6036
在生	-6037
在等	-6038
地看	-6039
垃圾	-6040
多高	-6041
够大	-6042
女生	-6043
她了	-6044
她是	-6045
好好	-6046
妙的	-6047
婚了	-6048
季节	-6049
孤单	-6050
它吗	-6051
害羞	-6052
家务	-6053
富有	-6054
将于	-6055
小偷	-6056
就没	-6057
尺寸	-6058
屋子	-6059
岩石	-6060
工人	-6061
工资	-6062
差别	-6063
带来	-6064
并且	-6065
幽默	-6066
广告	-6067
开着	-6068
强烈	-6069
当作	-6070
往常	-6071
往往	-6072
恢复	-6073
悲伤	-6074
惩罚	-6075
想过	-6076
感动	-6077
感激	-6078
我到	-6079
或者	-6080
手了	-6081
打字	-6082
批评	-6083
承诺	-6084
把门	-6085
拍了	-6086
拥有	-6087
拿了	-6088
损失	-6089
排球	-6090
支持	-6091
收入	-6092
改善	-6093
政府	-6094
教你	-6095
数字	-6096
方面	-6097
无所	-6098
无辜	-6099
日子	-6100
日期	-6101
旧的	-6102
明早	-6103
是没	-6104
暖和	-6105
暗了	-6106
曲奇	-6107
最终	-6108
月光	-6109
有了	-6110
有些	-6111
朵花	-6112
条新	-6113
条狗	-6114
来信	-6115
来过	-6116
树上	-6117
校长	-6118
样子	-6119
武器	-6120
比他	-6121
求助	-6122
没法	-6123
沿着	-6124
洋装	-6125
洗了	-6126
洪水	-6127
活动	-6128
溜冰	-6129
灭了	-6130
炎热	-6131
炸了	-6132
点事	-6133
爱她	-6134
牙齿	-6135
牢里	-6136
特的	-6137
王子	-6138
玛莉	-6139
玩的	-6140
玩耍	-6141
球拍	-6142
生物	-6143
用来	-6144
电子	-6145
电梯	-6146
留了	-6147
留着	-6148
白天	-6149
百年	-6150
的作	-6151
的钱	-6152
直到	-6153
相簿	-6154
着凉	-6155
着她	-6156
睡著	-6157
短了	-6158
社会	-6159
私下	-6160
秋天	-6161
种了	-6162
穷人	-6163
笔记	-6164
等著	-6165
粗心	-6166
精通	-6167
红了	-6168
红酒	-6169
约翰	-6170
经过	-6171
经验	-6172
结冰	-6173
绿色	-6174
缺钱	-6175
老了	-6176
老是	-6177
老鼠	-6178
胜于	-6179
脾气	-6180
航行	-6181
蚊子	-6182
衣裙	-6183
被雪	-6184
装满	-6185
裤子	-6186
西装	-6187
要他	-6188
话题	-6189
说不	-6190
调查	-6191
谈了	-6192
谎言	-6193
财富	-6194
贴在	-6195
费用	-6196
资源	-6197
走运	-6198
跟谁	-6199
路了	-6200
身边	-6201
转动	-6202
转角	-6203
输了	-6204
过敏	-6205
这台	-6206
这家	-6207
这本	-6208
这次	-6209
这项	-6210
进去	-6211
进口	-6212
适应	-6213
道上	-6214
那天	-6215
那就	-6216
那边	-6217
邮件	-6218
部份	-6219
重了	-6220
野生	-6221
长得	-6222
问好	-6223
队伍	-6224
陌生	-6225
难以	-6226
难过	-6227
雨中	-6228
风景	-6229
风暴	-6230
飞行	-6231
餐了	-6232
骄傲	-6233
骑车	-6234
骑马	-6235
鸟类	-6236
黑了	-6237
黑暗	-6238
100	-6239
anc	-6240
arp	-6241
ats	-6242
awa	-6243
bow	-6244
box	-6245
col	-6246
dle	-6247
een	-6248
ems	-6249
ets	-6250
gle	-6251
ims	-6252
iny	-6253
ito	-6254
its	-6255
ius	-6256
men	-6257
met	-6258
oya	-6259
ray	-6260
rit	-6261
squ	-6262
tim	-6263
ues	-6264
uge	-6265
ump	-6266
uto	-6267
val	-6268
zes	-6269
▁一切	-6270
▁不是	-6271
▁不管	-6272
▁两个	-6273
▁也许	-6274
▁他和	-6275
▁他将	-6276
▁他没	-6277
▁他用	-6278
▁他穿	-6279
▁他还	-6280
▁他送	-6281
▁你将	-6282
▁你得	-6283
▁再见	-6284
▁列车	-6285
▁哪里	-6286
▁她一	-6287
▁她上	-6288
▁她想	-6289
▁她搭	-6290
▁她穿	-6291
▁对于	-6292
▁希望	-6293
▁帮我	-6294
▁恐怕	-6295
▁您有	-6296
▁您的	-6297
▁您能	-6298
▁我下	-6299
▁我付	-6300
▁我去	-6301
▁我更	-6302
▁我累	-6303
▁我花	-6304
▁把它	-6305
▁无论	-6306
▁有时	-6307
▁根据	-6308
▁男孩	-6309
▁目前	-6310
▁盯著	-6311
▁真的	-6312
▁继续	-6313
▁请穿	-6314
▁谁会	-6315
▁这儿	-6316
▁这间	-6317
▁那么	-6318
▁除非	-6319
▁飞机	-6320
▁食物	-6321
一些钱	-6322
一定会	-6323
一点点	-6324
一起走	-6325
一辆车	-6326
万日元	-6327
三明治	-6328
上教堂	-6329
下午会	-6330
不可以	-6331
不太好	-6332
不容易	-6333
不认识	-6334
个地方	-6335
久一点	-6336
之前请	-6337
之间的	-6338
书架上	-6339
了一场	-6340
了一块	-6341
了一张	-6342
了我一	-6343
事故的	-6344
些什么	-6345
交朋友	-6346
今天的	-6347
他不会	-6348
他明天	-6349
以为我	-6350
众场合	-6351
伦敦的	-6352
但是她	-6353
你的好	-6354
你错了	-6355
信封上	-6356
信用卡	-6357
借给你	-6358
做不到	-6359
做她的	-6360
做那事	-6361
再忍受	-6362
几本书	-6363
出去吃	-6364
出去玩	-6365
出席了	-6366
出现在	-6367
到了他	-6368
到你了	-6369
剪头发	-6370
加入了	-6371
努力地	-6372
医生的	-6373
厌烦了	-6374
去教堂	-6375
变得很	-6376
句句子	-6377
叫汤姆	-6378
可以来	-6379
吃午餐	-6380
吃晚餐	-6381
名古屋	-6382
名好吗	-6383
听到了	-6384
听广播	-6385
听说过	-6386
周末都	-6387
和朋友	-6388
哪本书	-6389
唯一能	-6390
喜欢的	-6391
圣诞节	-6392
在东京	-6393
在他的	-6394
在公园	-6395
在她的	-6396
在美国	-6397
坐在我	-6398
城市里	-6399
外国人	-6400
多少人	-6401
大两岁	-6402
大利亚	-6403
太大了	-6404
女朋友	-6405
字典吗	-6406
学校在	-6407
学校里	-6408
对我们	-6409
对汤姆	-6410
将离开	-6411
小孩子	-6412
小男孩	-6413
就没有	-6414
巧克力	-6415
带我去	-6416
幸福的	-6417
幽默感	-6418
归功于	-6419
很多钱	-6420
很开心	-6421
很快地	-6422
很有钱	-6423
必要的	-6424
快一点	-6425
怎么去	-6426
想见你	-6427
意识到	-6428
我们有	-6429
我们该	-6430
我应该	-6431
我母亲	-6432
我现在	-6433
我觉得	-6434
我都会	-6435
房子里	-6436
所学校	-6437
打破了	-6438
抓到他	-6439
拿到了	-6440
拿多少	-6441
挤满了	-6442
换火车	-6443
掉在地	-6444
接受了	-6445
搬到了	-6446
数到十	-6447
新工作	-6448
早起床	-6449
明白了	-6450
星期五	-6451
星期六	-6452
是一位	-6453
是唯一	-6454
是学生	-6455
是新的	-6456
是英国	-6457
最大的	-6458
有一家	-6459
有一种	-6460
有人叫	-6461
有多远	-6462
有问题	-6463
来没有	-6464
桌子吗	-6465
正在找	-6466
母语者	-6467
比你高	-6468
比玛丽	-6469
比较好	-6470
汤姆能	-6471
没有吃	-6472
法语吗	-6473
深呼吸	-6474
爱汤姆	-6475
现在在	-6476
生活了	-6477
用完了	-6478
电影院	-6479
白色的	-6480
的一天	-6481
的价格	-6482
的会议	-6483
的味道	-6484
的就是	-6485
的态度	-6486
的朋友	-6487
的火车	-6488
的牛奶	-6489
的英文	-6490
相信她	-6491
看不到	-6492
看不见	-6493
看不起	-6494
看什么	-6495
看电影	-6496
睡著了	-6497
程度上	-6498
等了一	-6499
经常去	-6500
给了她	-6501
给我吗	-6502
翻译成	-6503
老实人	-6504
聪明人	-6505
能做的	-6506
苹果汁	-6507
被骗了	-6508
订婚了	-6509
认识的	-6510
让他的	-6511
许多人	-6512
该走了	-6513
说的是	-6514
读书吗	-6515
读了一	-6516
读这个	-6517
跟你的	-6518
跟你说	-6519
这一点	-6520
这么快	-6521
这么说	-6522
连衣裙	-6523
通过了	-6524
造成了	-6525
那么说	-6526
那种事	-6527
里游泳	-6528
闲时间	-6529
需要它	-6530
非常有	-6531
顶帽子	-6532
acts	-6533
adle	-6534
alse	-6535
ases	-6536
dney	-6537
ened	-6538
enth	-6539
ergy	-6540
five	-6541
head	-6542
icks	-6543
ield	-6544
iety	-6545
ilet	-6546
ilty	-6547
imit	-6548
ints	-6549
ipal	-6550
medi	-6551
mony	-6552
ones	-6553
oors	-6554
ored	-6555
oudy	-6556
read	-6557
reci	-6558
reck	-6559
rees	-6560
reme	-6561
uary	-6562
vent	-6563
vert	-6564
year	-6565
▁100	-6566
▁amb	-6567
▁ann	-6568
▁ant	-6569
▁aud	-6570
▁bri	-6571
▁dam	-6572
▁dev	-6573
▁fee	-6574
▁fog	-6575
▁gar	-6576
▁gen	-6577
▁hak	-6578
▁hom	-6579
▁ign	-6580
▁ink	-6581
▁lad	-6582
▁lou	-6583
▁mud	-6584
▁rob	-6585
▁rom	-6586
▁squ	-6587
▁sus	-6588
▁tot	-6589
▁toy	-6590
▁und	-6591
▁une	-6592
▁wis	-6593
▁为甚么	-6594
▁今天我	-6595
▁他们是	-6596
▁他们正	-6597
▁他们都	-6598
▁他似乎	-6599
▁他假装	-6600
▁他去过	-6601
▁他因为	-6602
▁他有时	-6603
▁他有点	-6604
▁他每天	-6605
▁他比我	-6606
▁他让我	-6607
▁他问我	-6608
▁你不该	-6609
▁你以前	-6610
▁你周日	-6611
▁你常常	-6612
▁你是个	-6613
▁你爸爸	-6614
▁你让我	-6615
▁你读完	-6616
▁北海道	-6617
▁天快要	-6618
▁她一直	-6619
▁她不想	-6620
▁她不是	-6621
▁她以前	-6622
▁她把我	-6623
▁她每天	-6624
▁她独自	-6625
▁她穿著	-6626
▁她让我	-6627
▁如果他	-6628
▁学生们	-6629
▁很明显	-6630
▁很高兴	-6631
▁我上周	-6632
▁我习惯	-6633
▁我今年	-6634
▁我们会	-6635
▁我们别	-6636
▁我们很	-6637
▁我们用	-6638
▁我们被	-6639
▁我会带	-6640
▁我会把	-6641
▁我儿子	-6642
▁我再也	-6643
▁我去年	-6644
▁我去过	-6645
▁我发现	-6646
▁我周日	-6647
▁我和他	-6648
▁我在这	-6649
▁我想在	-6650
▁我想把	-6651
▁我愿意	-6652
▁我拒绝	-6653
▁我明年	-6654
▁我来自	-6655
▁我根本	-6656
▁我猜想	-6657
▁我真是	-6658
▁我祖父	-6659
▁我给你	-6660
▁我肯定	-6661
▁我能看	-6662
▁我能问	-6663
▁我花了	-6664
▁我讨厌	-6665
▁我让他	-6666
▁我跟你	-6667
▁我还是	-6668
▁我阿姨	-6669
▁所有的	-6670
▁把你的	-6671
▁昨天他	-6672
▁能不能	-6673
▁英语是	-6674
▁这些花	-6675
▁这孩子	-6676
▁这就是	-6677
▁这条河	-6678
▁这真是	-6679
▁这艘船	-6680
▁这里是	-6681
▁这附近	-6682
▁这首歌	-6683
▁那只是	-6684
一整天都	-6685
上有一个	-6686
丢了我的	-6687
买这本书	-6688
了一整天	-6689
什么也没	-6690
今天早上	-6691
他的工作	-6692
他的房子	-6693
任何人都	-6694
会开车吗	-6695
你为什么	-6696
你想要的	-6697
你的帮助	-6698
你的想象	-6699
你的房间	-6700
修理我的	-6701
做到最好	-6702
做得很好	-6703
其他人都	-6704
再说一次	-6705
到波士顿	-6706
去了伦敦	-6707
去了那里	-6708
去哪儿了	-6709
去游泳吗	-6710
参加这个	-6711
同意你的	-6712
告诉过我	-6713
哈佛大学	-6714
在六点钟	-6715
在哪里吗	-6716
在这里待	-6717
在这附近	-6718
她的名字	-6719
她的孩子	-6720
她的母亲	-6721
她的父亲	-6722
学习法语	-6723
帮助我们	-6724
建议我们	-6725
开始一直	-6726
待在这里	-6727
想要的人	-6728
想见到你	-6729
成为一个	-6730
我不喜欢	-6731
我们应该	-6732
我的朋友	-6733
手里拿着	-6734
打扫房间	-6735
打扰你了	-6736
找到我的	-6737
抚养长大	-6738
收到他的	-6739
整个下午	-6740
是否喜欢	-6741
是没用的	-6742
更小心的	-6743
最喜欢的	-6744
有一个大	-6745
条新裙子	-6746
死于饥饿	-6747
比我的好	-6748
毫无意义	-6749
没有用的	-6750
游泳游得	-6751
澳大利亚	-6752
独自生活	-6753
用功读书	-6754
窗户打开	-6755
给我一些	-6756
西班牙语	-6757
读这本书	-6758
赶上火车	-6759
足够的钱	-6760
足球比赛	-6761
跟任何人	-6762
这是真的	-6763
这本书吗	-6764
进了房间	-6765
遇见了他	-6766
那个故事	-6767
那个男人	-6768
非常好的	-6769
非常有趣	-6770
高尔夫球	-6771
afety	-6772
assed	-6773
board	-6774
cohol	-6775
cript	-6776
ergic	-6777
essed	-6778
etite	-6779
ician	-6780
icing	-6781
igner	-6782
iment	-6783
inary	-6784
inite	-6785
ising	-6786
istic	-6787
ittee	-6788
itude	-6789
orter	-6790
ounce	-6791
ousin	-6792
poned	-6793
rance	-6794
royed	-6795
usted	-6796
uthor	-6797
ution	-6798
vator	-6799
▁alth	-6800
▁ange	-6801
▁asia	-6802
▁bars	-6803
▁calc	-6804
▁calm	-6805
▁camp	-6806
▁cart	-6807
▁cong	-6808
▁cust	-6809
▁decl	-6810
▁desp	-6811
▁dust	-6812
▁east	-6813
▁emot	-6814
▁fare	-6815
▁fuel	-6816
▁gain	-6817
▁hadn	-6818
▁hall	-6819
▁inst	-6820
▁jail	-6821
▁john	-6822
▁jour	-6823
▁june	-6824
▁lack	-6825
▁loss	-6826
▁main	-6827
▁nons	-6828
▁ones	-6829
▁poet	-6830
▁pool	-6831
▁rele	-6832
▁repe	-6833
▁scar	-6834
▁sept	-6835
▁serv	-6836
▁shel	-6837
▁shot	-6838
▁sour	-6839
▁surv	-6840
▁tail	-6841
▁tend	-6842
▁vict	-6843
▁vote	-6844
▁weap	-6845
▁weed	-6846
▁wild	-6847
▁wore	-6848
▁zero	-6849
▁不要忘了	-6850
▁不要担心	-6851
▁今天天气	-6852
▁从这里到	-6853
▁他一个月	-6854
▁他一定是	-6855
▁他们正在	-6856
▁他们让我	-6857
▁他很容易	-6858
▁他是一个	-6859
▁他是我的	-6860
▁他给了我	-6861
▁你不喜欢	-6862
▁你们好吗	-6863
▁你在这里	-6864
▁你应该要	-6865
▁你想再来	-6866
▁你没必要	-6867
▁你的学校	-6868
▁你能帮我	-6869
▁你认为我	-6870
▁如果你想	-6871
▁我下个月	-6872
▁我不想要	-6873
▁我不擅长	-6874
▁我不确定	-6875
▁我不觉得	-6876
▁我不需要	-6877
▁我买了两	-6878
▁我们喜欢	-6879
▁我们希望	-6880
▁我们的车	-6881
▁我们看见	-6882
▁我住在这	-6883
▁我喜欢在	-6884
▁我在这里	-6885
▁我期待著	-6886
▁我的一个	-6887
▁我的朋友	-6888
▁我知道他	-6889
▁我觉得你	-6890
▁我非常想	-6891
▁把书放在	-6892
▁明天天气	-6893
▁明天早上	-6894
▁汤姆买了	-6895
▁汤姆明天	-6896
▁汤姆还是	-6897
▁让我看看	-6898
▁请问你能	-6899
▁这不是我	-6900
▁这张桌子	-6901
▁这是一个	-6902
▁这本字典	-6903
▁这辆公车	-6904
▁那是一个	-6905
下一站下车	-6906
不知道汤姆	-6907
了这个问题	-6908
休息一会儿	-6909
写了一封信	-6910
半开始上课	-6911
发生什么事	-6912
同样的错误	-6913
告诉他真相	-6914
告诉你真相	-6915
在公众场合	-6916
在桌子底下	-6917
好几个小时	-6918
很长的时间	-6919
我不赞成你	-6920
是一个好人	-6921
是世界上最	-6922
有没有时间	-6923
流利的英语	-6924
的女人是谁	-6925
的就是这个	-6926
ateful	-6927
fortun	-6928
inated	-6929
ointed	-6930
restim	-6931
squito	-6932
thirty	-6933
▁absor	-6934
▁aston	-6935
▁boxes	-6936
▁burns	-6937
▁cance	-6938
▁candy	-6939
▁cares	-6940
▁cough	-6941
▁delic	-6942
▁dozen	-6943
▁dying	-6944
▁emplo	-6945
▁enemy	-6946
▁extra	-6947
▁facts	-6948
▁false	-6949
▁fifth	-6950
▁fixed	-6951
▁given	-6952
▁grows	-6953
▁hated	-6954
▁hates	-6955
▁homet	-6956
▁hoped	-6957
▁humor	-6958
▁influ	-6959
▁judge	-6960
▁kinds	-6961
▁limit	-6962
▁major	-6963
▁north	-6964
▁occas	-6965
▁optim	-6966
▁plain	-6967
▁pregn	-6968
▁princ	-6969
▁prize	-6970
▁refer	-6971
▁rooms	-6972
▁sandw	-6973
▁sells	-6974
▁shape	-6975
▁sharp	-6976
▁ships	-6977
▁shoot	-6978
▁skirt	-6979
▁snake	-6980
▁socks	-6981
▁solar	-6982
▁spare	-6983
▁spicy	-6984
▁stuff	-6985
▁towel	-6986
▁tower	-6987
▁waist	-6988
▁wreck	-6989
▁为什么你不	-6990
▁他很快就会	-6991
▁他是个好人	-6992
▁你不必这么	-6993
▁你为甚么不	-6994
▁你知道他们	-6995
▁你要去哪里	-6996
▁我一点也不	-6997
▁我不知道我	-6998
▁我不知道该	-6999
▁我今天不想	-7000
▁我希望我能	-7001
▁我现在不能	-7002
▁英语是一种	-7003
俱乐部的会员	-7004
俱乐部的成员	-7005
听到这个消息	-7006
cellent	-7007
ference	-7008
hibited	-7009
ichever	-7010
ificial	-7011
itation	-7012
osition	-7013
underst	-7014
▁admire	-7015
▁advert	-7016
▁applic	-7017
▁attemp	-7018
▁author	-7019
▁beauty	-7020
▁behave	-7021
▁carpet	-7022
▁center	-7023
▁chairs	-7024
▁chocol	-7025
▁cloudy	-7026
▁cousin	-7027
▁cradle	-7028
▁credit	-7029
▁depart	-7030
▁double	-7031
▁eighty	-7032
▁energy	-7033
▁escape	-7034
▁extent	-7035
▁fairly	-7036
▁faster	-7037
▁figure	-7038
▁fluent	-7039
▁govern	-7040
▁guilty	-7041
▁horses	-7042
▁hunger	-7043
▁immedi	-7044
▁indust	-7045
▁intend	-7046
▁louder	-7047
▁meters	-7048
▁middle	-7049
▁monkey	-7050
▁nagoya	-7051
▁paying	-7052
▁places	-7053
▁polite	-7054
▁prince	-7055
▁proper	-7056
▁pushed	-7057
▁recent	-7058
▁refuse	-7059
▁resemb	-7060
▁resign	-7061
▁safety	-7062
▁seemed	-7063
▁silent	-7064
▁snakes	-7065
▁spends	-7066
▁spread	-7067
▁stairs	-7068
▁starts	-7069
▁suffer	-7070
▁sydney	-7071
▁though	-7072
▁threat	-7073
▁toilet	-7074
▁unable	-7075
▁volley	-7076
▁warmer	-7077
▁wealth	-7078
▁wishes	-7079
▁yellow	-7080
▁天快要下雨了	-7081
▁如果明天下雨	-7082
▁我不知道他是	-7083
▁我叔叔给了我	-7084
派人去请医生来	-7085
▁actress	-7086
▁advance	-7087
▁alcohol	-7088
▁appears	-7089
▁appreci	-7090
▁arguing	-7091
▁article	-7092
▁awfully	-7093
▁bottles	-7094
▁breathe	-7095
▁checked	-7096
▁classes	-7097
▁climate	-7098
▁closing	-7099
▁contact	-7100
▁crowded	-7101
▁curious	-7102
▁deceive	-7103
▁degrees	-7104
▁efforts	-7105
▁engaged	-7106
▁freezes	-7107
▁holding	-7108
▁knocked	-7109
▁package	-7110
▁pretend	-7111
▁product	-7112
▁realize	-7113
▁records	-7114
▁retired	-7115
▁russian	-7116
▁scolded	-7117
▁secrets	-7118
▁section	-7119
▁shorter	-7120
▁skating	-7121
▁stories	-7122
▁tallest	-7123
▁thanked	-7124
▁tickets	-7125
▁treated	-7126
▁turning	-7127
▁washing	-7128
▁你可以借我你的	-7129
▁我想和你一起去	-7130
▁汤姆没有告诉我	-7131
▁airplane	-7132
▁allergic	-7133
▁although	-7134
▁anywhere	-7135
▁appetite	-7136
▁approach	-7137
▁argument	-7138
▁attitude	-7139
▁audience	-7140
▁becoming	-7141
▁continue	-7142
▁definite	-7143
▁discount	-7144
▁drinking	-7145
▁elevator	-7146
▁entrance	-7147
▁feelings	-7148
▁fluently	-7149
▁grateful	-7150
▁handsome	-7151
▁hometown	-7152
▁interpre	-7153
▁magazine	-7154
▁minister	-7155
▁mosquito	-7156
▁nonsense	-7157
▁objected	-7158
▁promises	-7159
▁received	-7160
▁register	-7161
▁stranger	-7162
▁strictly	-7163
▁suddenly	-7164
▁talented	-7165
▁terrible	-7166
▁unfortun	-7167
▁upstairs	-7168
▁wherever	-7169
▁youngest	-7170
▁我想要的就是这个	-7171
▁advantage	-7172
▁boyfriend	-7173
▁committee	-7174
▁continued	-7175
▁delicious	-7176
▁destroyed	-7177
▁education	-7178
▁excellent	-7179
▁exception	-7180
▁expecting	-7181
▁following	-7182
▁furnished	-7183
▁generally	-7184
▁magazines	-7185
▁perfectly	-7186
▁postponed	-7187
▁principal	-7188
▁pronounce	-7189
▁relatives	-7190
▁scientist	-7191
▁september	-7192
▁whichever	-7193
▁请你把盐递给我好吗	-7194
▁artificial	-7195
▁conference	-7196
▁confidence	-7197
▁discussing	-7198
▁experiment	-7199
▁misunderst	-7200
▁permission	-7201
▁practicing	-7202
▁prohibited	-7203
▁themselves	-7204
▁volleyball	-7205
▁communicate	-7206
▁imagination	-7207
▁immediately	-7208
▁intelligent	-7209
▁personality	-7210
▁responsible	-7211
▁temperature	-7212
▁consideration	-7213
▁international	-7214
▁responsibility	-7215
..	-7216
40	-7217
65	-7218
cu	-7219
fa	-7220
ha	-7221
ij	-7222
na	-7223
od	-7224
pl	-7225
ps	-7226
▁$	-7227
▁U	-7228
▁会	-7229
▁信	-7230
▁先	-7231
▁冰	-7232
▁几	-7233
▁周	-7234
▁四	-7235
▁回	-7236
▁学	-7237
▁开	-7238
▁往	-7239
▁得	-7240
▁快	-7241
▁拿	-7242
▁既	-7243
▁洗	-7244
▁浴	-7245
▁湖	-7246
▁演	-7247
▁灯	-7248
▁电	-7249
▁穿	-7250
▁给	-7251
▁若	-7252
▁躺	-7253
▁选	-7254
▁钟	-7255
▁铁	-7256
▁鱼	-7257
▁黑	-7258
一会	-7259
一块	-7260
一大	-7261
一无	-7262
一栋	-7263
一步	-7264
一段	-7265
一片	-7266
一班	-7267
一瓶	-7268
一辈	-7269
三年	-7270
上个	-7271
上身	-7272
下列	-7273
下山	-7274
下降	-7275
不久	-7276
不做	-7277
不合	-7278
不大	-7279
不安	-7280
不幸	-7281
不必	-7282
不然	-7283
不难	-7284
与他	-7285
东方	-7286
两者	-7287
严格	-7288
严肃	-7289
个人	-7290
丰富	-7291
为何	-7292
主要	-7293
义务	-7294
买这	-7295
了两	-7296
了家	-7297
了那	-7298
了门	-7299
事件	-7300
二十	-7301
五天	-7302
五岁	-7303
五楼	-7304
人以	-7305
人类	-7306
从北	-7307
仔裤	-7308
他从	-7309
他家	-7310
他就	-7311
付钱	-7312
以二	-7313
以你	-7314
任命	-7315
会说	-7316
会赢	-7317
估计	-7318
但他	-7319
位置	-7320
低估	-7321
住哪	-7322
住处	-7323
余的	-7324
作文	-7325
你吗	-7326
你家	-7327
你对	-7328
你我	-7329
你所	-7330
你有	-7331
你要	-7332
俄语	-7333
保守	-7334
保密	-7335
保险	-7336
信了	-7337
修好	-7338
假期	-7339
做个	-7340
做他	-7341
做好	-7342
停下	-7343
偶然	-7344
偷钱	-7345
儿童	-7346
兄长	-7347
充满	-7348
兜风	-7349
入学	-7350
入睡	-7351
全力	-7352
全国	-7353
全身	-7354
全部	-7355
八个	-7356
六月	-7357
共用	-7358
关闭	-7359
再买	-7360
写完	-7361
冬季	-7362
冰淇	-7363
减轻	-7364
几年	-7365
击了	-7366
删除	-7367
判断	-7368
到周	-7369
刷牙	-7370
前天	-7371
前我	-7372
前要	-7373
力很	-7374
加班	-7375
包含	-7376
匆忙	-7377
区域	-7378
十二	-7379
十六	-7380
千人	-7381
半个	-7382
协助	-7383
单独	-7384
卫生	-7385
原料	-7386
去找	-7387
友好	-7388
双胞	-7389
发疯	-7390
发音	-7391
取了	-7392
受伤	-7393
变差	-7394
变成	-7395
口井	-7396
口袋	-7397
只在	-7398
只猫	-7399
只能	-7400
叫你	-7401
叫做	-7402
可怕	-7403
台风	-7404
吃快	-7405
吃生	-7406
同学	-7407
同岁	-7408
同时	-7409
名和	-7410
后的	-7411
听众	-7412
周前	-7413
咱们	-7414
哪些	-7415
哭吗	-7416
哲学	-7417
喝茶	-7418
四点	-7419
回复	-7420
回应	-7421
在一	-7422
在它	-7423
在意	-7424
在找	-7425
在笑	-7426
地人	-7427
地铁	-7428
坏事	-7429
坏的	-7430
坐著	-7431
城堡	-7432
基础	-7433
堵塞	-7434
士乐	-7435
士比	-7436
多数	-7437
够了	-7438
够吗	-7439
大事	-7440
大狗	-7441
大雪	-7442
天才	-7443
天色	-7444
天花	-7445
太久	-7446
太空	-7447
太贵	-7448
失踪	-7449
头撞	-7450
头要	-7451
奴隶	-7452
她不	-7453
她为	-7454
她好	-7455
好玩	-7456
好看	-7457
娶她	-7458
婚姻	-7459
孤独	-7460
学的	-7461
安慰	-7462
定期	-7463
定的	-7464
实验	-7465
客人	-7466
宣布	-7467
寄信	-7468
富翁	-7469
富裕	-7470
尊重	-7471
小声	-7472
小鬼	-7473
尔顿	-7474
尝试	-7475
就下	-7476
就行	-7477
尽量	-7478
屋被	-7479
山丘	-7480
工具	-7481
已婚	-7482
市长	-7483
带著	-7484
帮她	-7485
平常	-7486
延期	-7487
建立	-7488
建造	-7489
开了	-7490
开头	-7491
开枪	-7492
弥补	-7493
强壮	-7494
强调	-7495
当个	-7496
当选	-7497
形容	-7498
很小	-7499
很熟	-7500
很蠢	-7501
得出	-7502
得更	-7503
得知	-7504
心意	-7505
忙了	-7506
念品	-7507
忽视	-7508
怀孕	-7509
急忙	-7510
怪你	-7511
恐怖	-7512
情绪	-7513
惊喜	-7514
想家	-7515
想当	-7516
愚弄	-7517
感情	-7518
愿望	-7519
懦夫	-7520
成人	-7521
我了	-7522
我将	-7523
我才	-7524
我来	-7525
我都	-7526
战斗	-7527
扇窗	-7528
才华	-7529
才是	-7530
打的	-7531
扔了	-7532
执照	-7533
执行	-7534
把他	-7535
把枪	-7536
抓住	-7537
投票	-7538
投资	-7539
抢劫	-7540
报警	-7541
担任	-7542
拉伯	-7543
拿出	-7544
指责	-7545
按时	-7546
掌握	-7547
排队	-7548
接着	-7549
接近	-7550
提高	-7551
握手	-7552
搜查	-7553
摄影	-7554
摇滚	-7555
摇篮	-7556
支票	-7557
放回	-7558
故障	-7559
整理	-7560
文学	-7561
料理	-7562
新书	-7563
新宿	-7564
无关	-7565
无礼	-7566
日记	-7567
时不	-7568
时了	-7569
昂贵	-7570
星是	-7571
是他	-7572
是很	-7573
是木	-7574
是种	-7575
晚会	-7576
晚安	-7577
晚都	-7578
景色	-7579
晴朗	-7580
暂时	-7581
更加	-7582
更有	-7583
更糟	-7584
最快	-7585
有关	-7586
有名	-7587
有效	-7588
有鬼	-7589
杀人	-7590
材料	-7591
杯子	-7592
杯酒	-7593
杯里	-7594
极了	-7595
林肯	-7596
某人	-7597
某种	-7598
柜里	-7599
栅栏	-7600
栋楼	-7601
树下	-7602
桶子	-7603
榜样	-7604
横滨	-7605
橘子	-7606
正常	-7607
死亡	-7608
每周	-7609
毛巾	-7610
毛病	-7611
气了	-7612
水吗	-7613
水和	-7614
汉堡	-7615
沙拉	-7616
注册	-7617
洋葱	-7618
洗车	-7619
洞里	-7620
活到	-7621
活力	-7622
浇花	-7623
浪漫	-7624
消防	-7625
清晨	-7626
港口	-7627
渴了	-7628
湿的	-7629
滑冰	-7630
满足	-7631
滩上	-7632
演奏	-7633
演说	-7634
漫步	-7635
激动	-7636
灾难	-7637
点前	-7638
烦我	-7639
烧了	-7640
热的	-7641
煮了	-7642
爆炸	-7643
爬树	-7644
爱情	-7645
牛肉	-7646
王位	-7647
班级	-7648
瑞典	-7649
瑞士	-7650
生于	-7651
用于	-7652
由于	-7653
男友	-7654
疑问	-7655
癌症	-7656
白费	-7657
百万	-7658
的水	-7659
的目	-7660
皮肤	-7661
盯着	-7662
直接	-7663
相爱	-7664
看你	-7665
看我	-7666
真实	-7667
确切	-7668
确认	-7669
碎了	-7670
碰巧	-7671
社团	-7672
神秘	-7673
禁止	-7674
私立	-7675
科目	-7676
秘书	-7677
租金	-7678
积极	-7679
稍后	-7680
空的	-7681
立即	-7682
竟然	-7683
第三	-7684
等着	-7685
筱山	-7686
简直	-7687
箱根	-7688
箱里	-7689
篮子	-7690
精力	-7691
系统	-7692
红绿	-7693
结帐	-7694
结论	-7695
给谁	-7696
绝对	-7697
继承	-7698
缸里	-7699
老婆	-7700
职业	-7701
股票	-7702
肩上	-7703
肺癌	-7704
胜利	-7705
胡说	-7706
胳膊	-7707
能去	-7708
能在	-7709
能来	-7710
腻了	-7711
自助	-7712
自由	-7713
舒适	-7714
良好	-7715
花费	-7716
苍白	-7717
苍蝇	-7718
草莓	-7719
获胜	-7720
落了	-7721
落在	-7722
著一	-7723
著他	-7724
著急	-7725
薪水	-7726
蜘蛛	-7727
行不	-7728
行吗	-7729
行走	-7730
行驶	-7731
装作	-7732
西兰	-7733
要多	-7734
要看	-7735
见他	-7736
计算	-7737
订了	-7738
订购	-7739
订阅	-7740
记忆	-7741
访客	-7742
诗人	-7743
话吗	-7744
该在	-7745
详细	-7746
诱惑	-7747
请教	-7748
课程	-7749
谨慎	-7750
贝尔	-7751
负担	-7752
财产	-7753
责备	-7754
账户	-7755
质量	-7756
贫穷	-7757
走去	-7758
走吧	-7759
走边	-7760
起飞	-7761
跌了	-7762
身高	-7763
车库	-7764
辛苦	-7765
辨别	-7766
达成	-7767
过世	-7768
过他	-7769
过后	-7770
过吗	-7771
运气	-7772
这支	-7773
进展	-7774
远离	-7775
逃学	-7776
逃跑	-7777
选为	-7778
造了	-7779
逻辑	-7780
遇到	-7781
遗失	-7782
避免	-7783
那张	-7784
郊区	-7785
都好	-7786
都能	-7787
都被	-7788
酒店	-7789
醒醒	-7790
重大	-7791
重视	-7792
金属	-7793
金钱	-7794
钻石	-7795
销售	-7796
镜子	-7797
长信	-7798
闹鬼	-7799
队的	-7800
阳光	-7801
陷阱	-7802
随便	-7803
随手	-7804
隐形	-7805
隐藏	-7806
隔壁	-7807
难题	-7808
集邮	-7809
雨天	-7810
雷击	-7811
青蛙	-7812
面带	-7813
韩国	-7814
音讯	-7815
顺便	-7816
饭店	-7817
首诗	-7818
魂吗	-7819
鸟在	-7820
鸡肉	-7821
黎明	-7822
:30	-7823
alt	-7824
amb	-7825
ane	-7826
aun	-7827
awn	-7828
azz	-7829
cus	-7830
erk	-7831
ext	-7832
gar	-7833
ged	-7834
gth	-7835
has	-7836
him	-7837
iod	-7838
iot	-7839
iqu	-7840
irm	-7841
ism	-7842
ixt	-7843
ker	-7844
let	-7845
lig	-7846
llo	-7847
nes	-7848
oko	-7849
oln	-7850
oms	-7851
oph	-7852
opt	-7853
ril	-7854
rog	-7855
sue	-7856
sun	-7857
tte	-7858
tub	-7859
uly	-7860
umb	-7861
yle	-7862
zed	-7863
▁18	-7864
▁50	-7865
▁er	-7866
▁hy	-7867
▁je	-7868
▁万一	-7869
▁上个	-7870
▁下周	-7871
▁不论	-7872
▁书桌	-7873
▁事情	-7874
▁今年	-7875
▁他一	-7876
▁他也	-7877
▁他像	-7878
▁他周	-7879
▁他娶	-7880
▁他家	-7881
▁他朝	-7882
▁他本	-7883
▁他给	-7884
▁令我	-7885
▁以前	-7886
▁你从	-7887
▁你只	-7888
▁你曾	-7889
▁你最	-7890
▁你来	-7891
▁你说	-7892
▁公司	-7893
▁别想	-7894
▁别用	-7895
▁别让	-7896
▁别走	-7897
▁动物	-7898
▁即使	-7899
▁厕所	-7900
▁可以	-7901
▁听到	-7902
▁哪个	-7903
▁回答	-7904
▁在我	-7905
▁她嫁	-7906
▁她将	-7907
▁她怕	-7908
▁她戴	-7909
▁她每	-7910
▁她没	-7911
▁她能	-7912
▁它在	-7913
▁它是	-7914
▁它真	-7915
▁就在	-7916
▁尽早	-7917
▁很难	-7918
▁情况	-7919
▁慢慢	-7920
▁我借	-7921
▁我到	-7922
▁我搞	-7923
▁我搭	-7924
▁我无	-7925
▁我梦	-7926
▁我睡	-7927
▁我穿	-7928
▁我记	-7929
▁我错	-7930
▁打开	-7931
▁把水	-7932
▁早上	-7933
▁早餐	-7934
▁春天	-7935
▁是吗	-7936
▁是我	-7937
▁是的	-7938
▁晚餐	-7939
▁最后	-7940
▁月光	-7941
▁有一	-7942
▁来吧	-7943
▁欢迎	-7944
▁欧洲	-7945
▁每个	-7946
▁每次	-7947
▁比赛	-7948
▁法律	-7949
▁海啸	-7950
▁爸爸	-7951
▁猴子	-7952
▁祝你	-7953
▁突然	-7954
▁第一	-7955
▁纽约	-7956
▁自从	-7957
▁请说	-7958
▁谣言	-7959
▁跟你	-7960
▁跟她	-7961
▁这么	-7962
▁这将	-7963
▁那不	-7964
▁那儿	-7965
▁那家	-7966
▁那时	-7967
▁那条	-7968
▁那边	-7969
▁风暴	-7970
▁鸟儿	-7971
一位老	-7972
一只狗	-7973
一周前	-7974
一次澡	-7975
一起做	-7976
一辈子	-7977
一遍吗	-7978
七点钟	-7979
上周日	-7980
上有张	-7981
上睡觉	-7982
下周日	-7983
下来了	-7984
不会去	-7985
不会花	-7986
不值得	-7987
不同的	-7988
不总是	-7989
不是个	-7990
不是很	-7991
不能去	-7992
不起来	-7993
不适合	-7994
东西了	-7995
东西吗	-7996
两年了	-7997
两英里	-7998
中午前	-7999
为她的	-8000
为汤姆	-8001
举起来	-8002
之间有	-8003
乘火车	-8004
乘电梯	-8005
书放在	-8006
了一件	-8007
了一口	-8008
了一周	-8009
了一眼	-8010
了解你	-8011
事情的	-8012
五年前	-8013
五点前	-8014
交报告	-8015
亲自去	-8016
人群中	-8017
今晚会	-8018
今晚的	-8019
仔细地	-8020
他正在	-8021
他父亲	-8022
他病了	-8023
价上涨	-8024
会议的	-8025
但现在	-8026
你不能	-8027
你就能	-8028
你的车	-8029
你需要	-8030
保存在	-8031
信任我	-8032
做他的	-8033
做功课	-8034
做得好	-8035
做这个	-8036
健康的	-8037
入场费	-8038
公车站	-8039
六十岁	-8040
六点了	-8041
再也不	-8042
写字母	-8043
冰淇淋	-8044
出去了	-8045
出去吗	-8046
出国吗	-8047
别的人	-8048
刮胡子	-8049
到他的	-8050
到周五	-8051
到哪里	-8052
到学校	-8053
到我们	-8054
到我的	-8055
努力的	-8056
医生吗	-8057
医院吗	-8058
十一点	-8059
卡车撞	-8060
却没有	-8061
去医院	-8062
去工作	-8063
去派对	-8064
去看了	-8065
去纽约	-8066
去钓鱼	-8067
及时赶	-8068
双胞胎	-8069
取消了	-8070
受到了	-8071
台电脑	-8072
右手臂	-8073
吃寿司	-8074
吃早饭	-8075
同样的	-8076
吓到了	-8077
听我说	-8078
听清楚	-8079
听起来	-8080
告诉了	-8081
和以前	-8082
和我们	-8083
和我的	-8084
喜欢他	-8085
喜欢你	-8086
喜欢这	-8087
噪音了	-8088
回到家	-8089
回家吧	-8090
回我的	-8091
回来吗	-8092
困难的	-8093
在周日	-8094
坐车去	-8095
增加了	-8096
士比亚	-8097
处看看	-8098
多吃点	-8099
大三岁	-8100
大量的	-8101
太年轻	-8102
太贵了	-8103
太阳系	-8104
太难了	-8105
失去你	-8106
头发剪	-8107
她已经	-8108
她的信	-8109
姓名和	-8110
子里的	-8111
存在吗	-8112
学校吗	-8113
学校的	-8114
学生都	-8115
安全带	-8116
实际上	-8117
家里有	-8118
寄给你	-8119
寄给我	-8120
对我的	-8121
小女孩	-8122
小时候	-8123
就住在	-8124
就开始	-8125
就是我	-8126
就行了	-8127
就需要	-8128
尺寸吗	-8129
屈服于	-8130
已经做	-8131
帮你吗	-8132
帮汤姆	-8133
并不是	-8134
床睡觉	-8135
度假了	-8136
度过了	-8137
开始了	-8138
弄丢了	-8139
当老师	-8140
很便宜	-8141
很健康	-8142
很好玩	-8143
很好看	-8144
很晚才	-8145
很生气	-8146
很讨厌	-8147
得很早	-8148
得很晚	-8149
怎么玩	-8150
怎么走	-8151
想做的	-8152
想念你	-8153
意思吗	-8154
我不太	-8155
我不能	-8156
我之前	-8157
我喜欢	-8158
我妹妹	-8159
我认为	-8160
房子的	-8161
房屋被	-8162
所以他	-8163
打扰我	-8164
打招呼	-8165
打排球	-8166
打篮球	-8167
承认他	-8168
把书还	-8169
把她的	-8170
把真相	-8171
抓住了	-8172
拍照吗	-8173
拍照片	-8174
持续了	-8175
换衣服	-8176
摇滚乐	-8177
摇篮里	-8178
放轻松	-8179
教英语	-8180
文章的	-8181
无所谓	-8182
无辜的	-8183
时间了	-8184
是不是	-8185
是个大	-8186
是为了	-8187
是医生	-8188
是圆的	-8189
是所有	-8190
是时候	-8191
是错的	-8192
是错误	-8193
月开始	-8194
有一张	-8195
有一本	-8196
有东西	-8197
有人在	-8198
有困难	-8199
有希望	-8200
有时会	-8201
朋友了	-8202
杀死了	-8203
果汁吗	-8204
梦想是	-8205
森林里	-8206
正在响	-8207
毕业于	-8208
池塘里	-8209
汤姆在	-8210
汤姆把	-8211
没意思	-8212
没看见	-8213
洋娃娃	-8214
活到了	-8215
清理了	-8216
游泳池	-8217
游过了	-8218
演讲的	-8219
点左右	-8220
照顾好	-8221
爱音乐	-8222
爵士乐	-8223
父亲是	-8224
牛仔裤	-8225
理发店	-8226
甚么吗	-8227
生物学	-8228
用英文	-8229
男朋友	-8230
的习惯	-8231
的事要	-8232
的兄弟	-8233
的决定	-8234
的原因	-8235
的名字	-8236
的大小	-8237
的女儿	-8238
的对面	-8239
的小说	-8240
的座位	-8241
的想法	-8242
的意见	-8243
的是这	-8244
的样子	-8245
的花朵	-8246
监狱里	-8247
直到他	-8248
相信鬼	-8249
看了吗	-8250
看到你	-8251
看报纸	-8252
看著我	-8253
看见了	-8254
真的吗	-8255
着凉了	-8256
知道它	-8257
碰我的	-8258
离开吗	-8259
离开家	-8260
离这里	-8261
穿什么	-8262
穿反了	-8263
穿衣服	-8264
第一名	-8265
红绿灯	-8266
纪念品	-8267
经常在	-8268
绝不会	-8269
美丽的	-8270
美国吗	-8271
老房子	-8272
胆小鬼	-8273
良好的	-8274
花瓶里	-8275
苏格兰	-8276
苹果派	-8277
被邀请	-8278
装满了	-8279
要我们	-8280
要求我	-8281
要说吗	-8282
覆盖了	-8283
见我的	-8284
觉得很	-8285
认为这	-8286
认识他	-8287
认识你	-8288
认识她	-8289
设计师	-8290
证明是	-8291
试一下	-8292
说中文	-8293
说了谎	-8294
说得不	-8295
说得通	-8296
读报纸	-8297
谈谈吗	-8298
赢得了	-8299
跑得快	-8300
跟我的	-8301
跟我讲	-8302
辆汽车	-8303
边走边	-8304
过时了	-8305
还活着	-8306
这个人	-8307
这个词	-8308
这些花	-8309
这只狗	-8310
这幅画	-8311
这种事	-8312
这问题	-8313
这附近	-8314
迷路了	-8315
退休了	-8316
邀请我	-8317
那么好	-8318
重得多	-8319
重感冒	-8320
长得像	-8321
门开著	-8322
阿拉伯	-8323
院子里	-8324
颜色的	-8325
黑色的	-8326
1000	-8327
aded	-8328
adow	-8329
ager	-8330
ague	-8331
asay	-8332
aste	-8333
clus	-8334
coat	-8335
ecut	-8336
eria	-8337
ests	-8338
gage	-8339
gain	-8340
gent	-8341
gged	-8342
hama	-8343
ibly	-8344
ideo	-8345
iest	-8346
ilar	-8347
ilos	-8348
ival	-8349
ived	-8350
juku	-8351
logy	-8352
mand	-8353
mbur	-8354
merg	-8355
nect	-8356
ners	-8357
onse	-8358
ooth	-8359
owed	-8360
sion	-8361
ster	-8362
stru	-8363
tery	-8364
ucky	-8365
vere	-8366
yond	-8367
▁adj	-8368
▁bio	-8369
▁bom	-8370
▁cds	-8371
▁cig	-8372
▁cir	-8373
▁cop	-8374
▁cre	-8375
▁emb	-8376
▁fan	-8377
▁fur	-8378
▁glo	-8379
▁hem	-8380
▁hol	-8381
▁jam	-8382
▁jun	-8383
▁kar	-8384
▁kil	-8385
▁mic	-8386
▁mix	-8387
▁obs	-8388
▁pan	-8389
▁pet	-8390
▁pil	-8391
▁pin	-8392
▁pir	-8393
▁rab	-8394
▁rac	-8395
▁row	-8396
▁scr	-8397
▁tar	-8398
▁tig	-8399
▁tor	-8400
▁tun	-8401
▁typ	-8402
▁unc	-8403
▁uns	-8404
▁ver	-8405
▁wel	-8406
▁一百年	-8407
▁下周一	-8408
▁不要把	-8409
▁今天的	-8410
▁他不再	-8411
▁他从没	-8412
▁他决定	-8413
▁他几乎	-8414
▁他反对	-8415
▁他和他	-8416
▁他害怕	-8417
▁他年纪	-8418
▁他拒绝	-8419
▁他擅长	-8420
▁他有几	-8421
▁他来了	-8422
▁他的话	-8423
▁他站在	-8424
▁他终于	-8425
▁他给我	-8426
▁他设法	-8427
▁他试著	-8428
▁他跑得	-8429
▁但愿你	-8430
▁但是我	-8431
▁你一般	-8432
▁你不会	-8433
▁你不想	-8434
▁你不要	-8435
▁你买了	-8436
▁你会待	-8437
▁你住在	-8438
▁你何时	-8439
▁你做完	-8440
▁你几点	-8441
▁你周末	-8442
▁你在读	-8443
▁你就是	-8444
▁你工作	-8445
▁你感觉	-8446
▁你早餐	-8447
▁你昨晚	-8448
▁你是我	-8449
▁你最近	-8450
▁你有多	-8451
▁你来自	-8452
▁你每天	-8453
▁你要我	-8454
▁你随时	-8455
▁全世界	-8456
▁别担心	-8457
▁别让他	-8458
▁只要你	-8459
▁听起来	-8460
▁哪本书	-8461
▁哪本是	-8462
▁因为我	-8463
▁图书馆	-8464
▁在日本	-8465
▁在某种	-8466
▁在这个	-8467
▁她决定	-8468
▁她发现	-8469
▁她可以	-8470
▁她和我	-8471
▁她好像	-8472
▁她擅长	-8473
▁她有一	-8474
▁她知道	-8475
▁她确实	-8476
▁她立刻	-8477
▁如果您	-8478
▁它不是	-8479
▁差不多	-8480
▁当我们	-8481
▁很少人	-8482
▁很遗憾	-8483
▁您怎么	-8484
▁您最好	-8485
▁慢慢来	-8486
▁我一点	-8487
▁我不禁	-8488
▁我仍然	-8489
▁我们将	-8490
▁我们该	-8491
▁我们队	-8492
▁我会在	-8493
▁我保证	-8494
▁我刚才	-8495
▁我十分	-8496
▁我参加	-8497
▁我受不	-8498
▁我可能	-8499
▁我在想	-8500
▁我女儿	-8501
▁我姑姑	-8502
▁我尽快	-8503
▁我当时	-8504
▁我很难	-8505
▁我怀疑	-8506
▁我怎么	-8507
▁我恐怕	-8508
▁我想哭	-8509
▁我想我	-8510
▁我想这	-8511
▁我打赌	-8512
▁我擅长	-8513
▁我曾经	-8514
▁我比你	-8515
▁我的手	-8516
▁我的腿	-8517
▁我的表	-8518
▁我的车	-8519
▁我确实	-8520
▁我终于	-8521
▁我经常	-8522
▁我能借	-8523
▁我能用	-8524
▁我警告	-8525
▁我试图	-8526
▁我试着	-8527
▁我走了	-8528
▁我跟她	-8529
▁我身上	-8530
▁我遇见	-8531
▁数千人	-8532
▁日本人	-8533
▁星期天	-8534
▁昨晚你	-8535
▁显然地	-8536
▁晚饭后	-8537
▁有一天	-8538
▁有人偷	-8539
▁有人在	-8540
▁有时候	-8541
▁汤姆也	-8542
▁汤姆会	-8543
▁汤姆向	-8544
▁汤姆真	-8545
▁汤姆能	-8546
▁汤姆走	-8547
▁汤姆预	-8548
▁没有水	-8549
▁看起来	-8550
▁要是你	-8551
▁要是我	-8552
▁让我来	-8553
▁请允许	-8554
▁请关灯	-8555
▁请原谅	-8556
▁谁负责	-8557
▁这个字	-8558
▁这些天	-8559
▁这口井	-8560
▁这封信	-8561
▁这座山	-8562
▁这是他	-8563
▁这男人	-8564
▁这让我	-8565
▁这辆车	-8566
▁那不好	-8567
▁那两个	-8568
▁那是一	-8569
▁问题是	-8570
▁除了我	-8571
一个世纪	-8572
一个问题	-8573
一份兼职	-8574
一份礼物	-8575
一切都好	-8576
一张邮票	-8577
一无所知	-8578
一杯咖啡	-8579
一起出去	-8580
上学迟到	-8581
上的棒球	-8582
下了很多	-8583
不是很好	-8584
不知道该	-8585
不要出门	-8586
两个女儿	-8587
举行派对	-8588
买了什么	-8589
了一会儿	-8590
了一本书	-8591
交通意外	-8592
什么意思	-8593
什么样的	-8594
什么水果	-8595
今天下午	-8596
他会来的	-8597
他做什么	-8598
他是对的	-8599
他自己的	-8600
任何问题	-8601
会说法语	-8602
但我还是	-8603
住在一起	-8604
住在乡下	-8605
住在日本	-8606
住的房子	-8607
你的字典	-8608
你的帮忙	-8609
你的建议	-8610
你的想法	-8611
你的意思	-8612
信守诺言	-8613
兄弟姐妹	-8614
共同之处	-8615
其中一个	-8616
几个问题	-8617
办公室吗	-8618
办公室里	-8619
加拿大的	-8620
动物园吗	-8621
十分钟前	-8622
去图书馆	-8623
去看医生	-8624
去看牙医	-8625
去睡觉了	-8626
去过那里	-8627
可以开车	-8628
可能已经	-8629
吃快餐了	-8630
向你父亲	-8631
告诉你我	-8632
告诉过你	-8633
喜不喜欢	-8634
喜欢这个	-8635
在同一个	-8636
在图书馆	-8637
在家里吗	-8638
在我们的	-8639
在放学后	-8640
在日本很	-8641
在这里吗	-8642
多久时间	-8643
天花板上	-8644
头要炸了	-8645
套新衣服	-8646
她的丈夫	-8647
她的儿子	-8648
她的钱包	-8649
如何使用	-8650
如何游泳	-8651
婴儿正在	-8652
学习音乐	-8653
完成他的	-8654
完成工作	-8655
寻找这个	-8656
就是等待	-8657
就结婚了	-8658
工厂工作	-8659
帮助他们	-8660
开始工作	-8661
彼此相爱	-8662
很快就能	-8663
很感兴趣	-8664
得太多了	-8665
得很愉快	-8666
得很流利	-8667
必须工作	-8668
感觉良好	-8669
成为什么	-8670
成为医生	-8671
我什么都	-8672
我们必须	-8673
我是不是	-8674
我的建议	-8675
我的新车	-8676
房间里有	-8677
所做的事	-8678
所有人都	-8679
所知道的	-8680
打得很好	-8681
打网球吗	-8682
找到了一	-8683
把他的车	-8684
把你关在	-8685
把门关上	-8686
挂在墙上	-8687
挤满了人	-8688
放在哪里	-8689
救了这个	-8690
无法离开	-8691
是不好的	-8692
是好朋友	-8693
是意大利	-8694
是我妹妹	-8695
是日本的	-8696
是最好的	-8697
是汤姆的	-8698
是错误的	-8699
更喜欢猫	-8700
正在发生	-8701
没有道理	-8702
法语说得	-8703
洗一次澡	-8704
游过了河	-8705
点东西吃	-8706
照顾孩子	-8707
环游世界	-8708
玻璃杯里	-8709
生命危险	-8710
生日礼物	-8711
生活方式	-8712
用我的车	-8713
用英文写	-8714
留在这里	-8715
百分之百	-8716
的好地方	-8717
的时间了	-8718
的首都是	-8719
目前为止	-8720
相信汤姆	-8721
看了电视	-8722
知道她的	-8723
知道我们	-8724
研读英语	-8725
离开房间	-8726
空闲时间	-8727
给我一个	-8728
给我看看	-8729
考虑一下	-8730
自然资源	-8731
花园里种	-8732
莎士比亚	-8733
被车撞了	-8734
要去哪里	-8735
要说什么	-8736
见到汤姆	-8737
见过汤姆	-8738
计程车去	-8739
认为汤姆	-8740
让我想起	-8741
讲英语吗	-8742
越来越多	-8743
跟他结婚	-8744
跟我说话	-8745
跟汤姆说	-8746
辆自行车	-8747
这个故事	-8748
这么生气	-8749
这些家伙	-8750
这位女士	-8751
这句句子	-8752
这场比赛	-8753
这本字典	-8754
重了无法	-8755
野生动物	-8756
需要修理	-8757
非常勇敢	-8758
非常漂亮	-8759
非常生气	-8760
非常重要	-8761
马上去做	-8762
驾驶执照	-8763
amond	-8764
anced	-8765
anied	-8766
antic	-8767
antly	-8768
arant	-8769
arter	-8770
ashed	-8771
asing	-8772
astle	-8773
awber	-8774
cence	-8775
cribe	-8776
ctual	-8777
ening	-8778
ented	-8779
eping	-8780
erior	-8781
iders	-8782
igned	-8783
ijing	-8784
isted	-8785
light	-8786
mates	-8787
owing	-8788
peare	-8789
phoon	-8790
ratul	-8791
ribut	-8792
sunam	-8793
tched	-8794
unted	-8795
venir	-8796
wards	-8797
xpect	-8798
▁abst	-8799
▁arab	-8800
▁army	-8801
▁auto	-8802
▁band	-8803
▁bare	-8804
▁beef	-8805
▁blan	-8806
▁blew	-8807
▁bran	-8808
▁brit	-8809
▁buys	-8810
▁capt	-8811
▁cell	-8812
▁cere	-8813
▁chop	-8814
▁cool	-8815
▁danc	-8816
▁dawn	-8817
▁deaf	-8818
▁debt	-8819
▁dele	-8820
▁docu	-8821
▁doub	-8822
▁drew	-8823
▁envy	-8824
▁exch	-8825
▁exha	-8826
▁febr	-8827
▁feed	-8828
▁fest	-8829
▁firm	-8830
▁flag	-8831
▁fold	-8832
▁frog	-8833
▁heat	-8834
▁hers	-8835
▁huge	-8836
▁incl	-8837
▁jazz	-8838
▁kore	-8839
▁laid	-8840
▁lamp	-8841
▁laun	-8842
▁lean	-8843
▁lent	-8844
▁linc	-8845
▁lung	-8846
▁mass	-8847
▁neck	-8848
▁nose	-8849
▁okay	-8850
▁oper	-8851
▁owes	-8852
▁pale	-8853
▁path	-8854
▁poll	-8855
▁repl	-8856
▁rule	-8857
▁rush	-8858
▁sail	-8859
▁scot	-8860
▁self	-8861
▁sens	-8862
▁sits	-8863
▁sixt	-8864
▁slip	-8865
▁sofa	-8866
▁soft	-8867
▁sons	-8868
▁sore	-8869
▁stat	-8870
▁subs	-8871
▁swam	-8872
▁swed	-8873
▁term	-8874
▁text	-8875
▁thin	-8876
▁tied	-8877
▁tiny	-8878
▁tore	-8879
▁unde	-8880
▁upon	-8881
▁whis	-8882
▁wool	-8883
▁yoko	-8884
▁上个月我	-8885
▁不要忘记	-8886
▁他不在家	-8887
▁他们将在	-8888
▁他们总是	-8889
▁他们都在	-8890
▁他有三个	-8891
▁他有很多	-8892
▁他的头撞	-8893
▁他的房子	-8894
▁他的母亲	-8895
▁他的英语	-8896
▁他给自己	-8897
▁他被他的	-8898
▁他被选为	-8899
▁你不需要	-8900
▁你们怎么	-8901
▁你在哪儿	-8902
▁你在私立	-8903
▁你想吃点	-8904
▁你是那个	-8905
▁你有多少	-8906
▁你本应该	-8907
▁你的父母	-8908
▁你的问题	-8909
▁你要喝点	-8910
▁再试一次	-8911
▁去年夏天	-8912
▁告诉汤姆	-8913
▁在我看来	-8914
▁她不得不	-8915
▁她为我们	-8916
▁她为自己	-8917
▁她很快地	-8918
▁她的母亲	-8919
▁她的英语	-8920
▁她被要求	-8921
▁小心不要	-8922
▁我一整天	-8923
▁我不了解	-8924
▁我不介意	-8925
▁我不得不	-8926
▁我不怪你	-8927
▁我不是个	-8928
▁我买不起	-8929
▁我们今天	-8930
▁我们准备	-8931
▁我们发现	-8932
▁我们可以	-8933
▁我们已经	-8934
▁我们昨晚	-8935
▁我们觉得	-8936
▁我们让他	-8937
▁我会让你	-8938
▁我前几天	-8939
▁我可以去	-8940
▁我喜欢狗	-8941
▁我在考虑	-8942
▁我在车站	-8943
▁我太忙了	-8944
▁我家附近	-8945
▁我希望能	-8946
▁我很惊讶	-8947
▁我想喝点	-8948
▁我想看看	-8949
▁我想跟你	-8950
▁我所有的	-8951
▁我星期天	-8952
▁我星期日	-8953
▁我昨晚睡	-8954
▁我是网球	-8955
▁我更愿意	-8956
▁我有一些	-8957
▁我每天都	-8958
▁我没想到	-8959
▁我现在想	-8960
▁我的叔叔	-8961
▁我的手表	-8962
▁我的英文	-8963
▁我的车子	-8964
▁我相信你	-8965
▁我真的很	-8966
▁我累死了	-8967
▁我认为那	-8968
▁我需要你	-8969
▁把这本书	-8970
▁有人喜欢	-8971
▁有多少人	-8972
▁汤姆不吃	-8973
▁汤姆从没	-8974
▁汤姆以前	-8975
▁汤姆去年	-8976
▁汤姆在这	-8977
▁汤姆坐在	-8978
▁汤姆年纪	-8979
▁汤姆想去	-8980
▁汤姆想要	-8981
▁汤姆拒绝	-8982
▁汤姆是我	-8983
▁汤姆甚至	-8984
▁汤姆穿着	-8985
▁汤姆还没	-8986
▁汤姆问我	-8987
▁没有必要	-8988
▁由于天气	-8989
▁给我你的	-8990
▁这个价格	-8991
▁这家公司	-8992
▁这张书桌	-8993
▁这是一本	-8994
▁这是谁的	-8995
▁这班火车	-8996
▁这附近有	-8997
▁那个男孩	-8998
▁那是我的	-8999
▁除了雨天	-9000
一些问题吗	-9001
一瓶葡萄酒	-9002
上学迟到了	-9003
上签名好吗	-9004
之间的秘密	-9005
买了这本书	-9006
了我的房间	-9007
了我的钱包	-9008
了这个机会	-9009
什么时候来	-9010
什么都知道	-9011
他是无辜的	-9012
任何你想要	-9013
你在做什么	-9014
做她的功课	-9015
做这个工作	-9016
去了波士顿	-9017
发生了一场	-9018
告诉我真相	-9019
和两个女儿	-9020
在这里工作	-9021
坐在我旁边	-9022
子里有一些	-9023
完了这本书	-9024
对你的健康	-9025
尽力地利用	-9026
想去的地方	-9027
成功归功于	-9028
我去了公园	-9029
我的右手臂	-9030
我的自行车	-9031
我遇见了他	-9032
房间里没有	-9033
所有的问题	-9034
打电话给她	-9035
打破了窗户	-9036
打高尔夫球	-9037
扔了块石头	-9038
搭飞机旅行	-9039
最好的朋友	-9040
有一间小屋	-9041
有什么计划	-9042
正忙著准备	-9043
每个周末都	-9044
比你大两岁	-9045
游世界各地	-9046
玩得开心吗	-9047
的那个男人	-9048
相同的错误	-9049
看起来好像	-9050
看这部电影	-9051
真是太好了	-9052
等了半小时	-9053
给想要的人	-9054
给我打电话	-9055
翻译成日文	-9056
自己的孩子	-9057
解决的问题	-9058
说的是真的	-9059
读完这本书	-9060
走路去学校	-9061
足够的食物	-9062
跟我一起去	-9063
跟汤姆说话	-9064
跟玛丽说话	-9065
这张桌子吗	-9066
这样的事情	-9067
高中毕业了	-9068
arette	-9069
hedule	-9070
nesday	-9071
ounced	-9072
ources	-9073
prints	-9074
remely	-9075
render	-9076
ulture	-9077
▁activ	-9078
▁added	-9079
▁adopt	-9080
▁ahead	-9081
▁alarm	-9082
▁alert	-9083
▁april	-9084
▁avail	-9085
▁badly	-9086
▁basic	-9087
▁below	-9088
▁block	-9089
▁bloom	-9090
▁boots	-9091
▁bound	-9092
▁brief	-9093
▁burst	-9094
▁cabin	-9095
▁cafet	-9096
▁calls	-9097
▁cloth	-9098
▁coinc	-9099
▁cover	-9100
▁deals	-9101
▁earns	-9102
▁elbow	-9103
▁eleph	-9104
▁emerg	-9105
▁empty	-9106
▁equal	-9107
▁equiv	-9108
▁faces	-9109
▁feels	-9110
▁finds	-9111
▁fired	-9112
▁focus	-9113
▁forty	-9114
▁foxes	-9115
▁gives	-9116
▁guide	-9117
▁hello	-9118
▁helps	-9119
▁hired	-9120
▁homes	-9121
▁ident	-9122
▁idiot	-9123
▁jeans	-9124
▁loses	-9125
▁march	-9126
▁mayor	-9127
▁meals	-9128
▁metal	-9129
▁naked	-9130
▁names	-9131
▁oblig	-9132
▁occur	-9133
▁persu	-9134
▁pound	-9135
▁pride	-9136
▁prime	-9137
▁reads	-9138
▁salad	-9139
▁sasay	-9140
▁shave	-9141
▁shine	-9142
▁shook	-9143
▁sides	-9144
▁spell	-9145
▁state	-9146
▁sugar	-9147
▁suits	-9148
▁teens	-9149
▁thief	-9150
▁tight	-9151
▁tooth	-9152
▁track	-9153
▁trash	-9154
▁truly	-9155
▁twent	-9156
▁upset	-9157
▁video	-9158
▁woods	-9159
▁他不会游泳	-9160
▁他不是傻子	-9161
▁他的办公室	-9162
▁他知道如何	-9163
▁他非常生气	-9164
▁你为什么哭	-9165
▁你可以使用	-9166
▁你可以帮我	-9167
▁你在看什么	-9168
▁你想再来些	-9169
▁你想要什么	-9170
▁你昨天晚上	-9171
▁你最好立刻	-9172
▁你游泳游得	-9173
▁你现在可以	-9174
▁你看起来很	-9175
▁你认为如何	-9176
▁你认为汤姆	-9177
▁她现在正在	-9178
▁如果我是你	-9179
▁我不太确定	-9180
▁我从来没有	-9181
▁我们不知道	-9182
▁我们学校在	-9183
▁我们有很多	-9184
▁我会借给你	-9185
▁我免费得到	-9186
▁我喜欢跑步	-9187
▁我喜欢运动	-9188
▁我想要成为	-9189
▁我每天早上	-9190
▁我永远不会	-9191
▁我现在正在	-9192
▁我相信他会	-9193
▁我认为我能	-9194
▁我问了汤姆	-9195
▁汤姆三年前	-9196
▁汤姆在他的	-9197
▁汤姆让玛丽	-9198
▁汤姆说玛丽	-9199
▁汤姆跟玛丽	-9200
▁汤姆问玛丽	-9201
▁没有人知道	-9202
▁由你来决定	-9203
▁电话正在响	-9204
▁能不能请你	-9205
▁请允许我去	-9206
▁这座山被雪	-9207
上的棒球比赛	-9208
什么时候会来	-9209
写了一本关于	-9210
加拿大的哪里	-9211
在公园里散步	-9212
完成这个工作	-9213
成为一名教师	-9214
我的一个朋友	-9215
条新裙子给我	-9216
根本毫无意义	-9217
火车站要多久	-9218
离开这个房间	-9219
跟任何人说话	-9220
cinated	-9221
erative	-9222
ometers	-9223
sidered	-9224
xpected	-9225
▁accomp	-9226
▁backed	-9227
▁barber	-9228
▁beside	-9229
▁beyond	-9230
▁bigger	-9231
▁bother	-9232
▁calcul	-9233
▁castle	-9234
▁cheese	-9235
▁circle	-9236
▁cities	-9237
▁claims	-9238
▁cooked	-9239
▁critic	-9240
▁dating	-9241
▁demand	-9242
▁detail	-9243
▁determ	-9244
▁direct	-9245
▁disapp	-9246
▁distur	-9247
▁divide	-9248
▁dozens	-9249
▁earned	-9250
▁easier	-9251
▁emphas	-9252
▁execut	-9253
▁finger	-9254
▁flight	-9255
▁fooled	-9256
▁forced	-9257
▁garage	-9258
▁genius	-9259
▁ground	-9260
▁habits	-9261
▁hakone	-9262
▁hambur	-9263
▁harbor	-9264
▁heated	-9265
▁income	-9266
▁jumped	-9267
▁kicked	-9268
▁latest	-9269
▁locked	-9270
▁narrow	-9271
▁notice	-9272
▁novels	-9273
▁onions	-9274
▁pepper	-9275
▁period	-9276
▁philos	-9277
▁pieces	-9278
▁placed	-9279
▁pocket	-9280
▁policy	-9281
▁rabbit	-9282
▁raised	-9283
▁rarely	-9284
▁repeat	-9285
▁riding	-9286
▁search	-9287
▁series	-9288
▁served	-9289
▁severe	-9290
▁shakes	-9291
▁simple	-9292
▁sleepy	-9293
▁smiled	-9294
▁smooth	-9295
▁snowed	-9296
▁social	-9297
▁target	-9298
▁thread	-9299
▁throne	-9300
▁tsunam	-9301
▁unless	-9302
▁urgent	-9303
▁vision	-9304
▁visits	-9305
▁waiter	-9306
▁wished	-9307
▁within	-9308
▁什么时候开始	-9309
▁今天天气很好	-9310
▁他喜欢看电视	-9311
▁在某种程度上	-9312
▁我不想让汤姆	-9313
▁我不知道我们	-9314
▁我们在公园里	-9315
▁我可以用你的	-9316
▁我无法再忍受	-9317
▁我觉得这本书	-9318
▁我该去睡觉了	-9319
▁汤姆告诉玛丽	-9320
▁汤姆和玛丽都	-9321
▁让我们放学后	-9322
▁说英语很有趣	-9323
▁这不关你的事	-9324
下一步要做什么	-9325
下一步该做什么	-9326
买了一台照相机	-9327
人看是不礼貌的	-9328
什么时候到横滨	-9329
在公众场合说话	-9330
在这条河里游泳	-9331
学习的时候不要	-9332
cription	-9333
▁actions	-9334
▁affairs	-9335
▁baggage	-9336
▁bargain	-9337
▁barking	-9338
▁bathtub	-9339
▁becomes	-9340
▁beijing	-9341
▁blowing	-9342
▁catches	-9343
▁ceiling	-9344
▁changes	-9345
▁command	-9346
▁conclus	-9347
▁connect	-9348
▁contain	-9349
▁crashed	-9350
▁curtain	-9351
▁dancing	-9352
▁diamond	-9353
▁dislike	-9354
▁doctors	-9355
▁dreamed	-9356
▁dresses	-9357
▁drunken	-9358
▁economy	-9359
▁escaped	-9360
▁failure	-9361
▁further	-9362
▁glanced	-9363
▁granted	-9364
▁growing	-9365
▁guarant	-9366
▁haunted	-9367
▁heavier	-9368
▁improve	-9369
▁indoors	-9370
▁interfe	-9371
▁knowing	-9372
▁landing	-9373
▁lecture	-9374
▁lincoln	-9375
▁located	-9376
▁lottery	-9377
▁mailing	-9378
▁matters	-9379
▁nations	-9380
▁noticed	-9381
▁planted	-9382
▁prefers	-9383
▁puzzled	-9384
▁reasons	-9385
▁recover	-9386
▁reminds	-9387
▁rescued	-9388
▁ringing	-9389
▁schools	-9390
▁selling	-9391
▁shelter	-9392
▁silence	-9393
▁similar	-9394
▁smaller	-9395
▁spiders	-9396
▁spilled	-9397
▁totally	-9398
▁typhoon	-9399
▁various	-9400
▁warning	-9401
▁watches	-9402
▁welcome	-9403
▁whoever	-9404
▁winning	-9405
▁workers	-9406
▁你可以选择任何	-9407
▁我的嗜好是收集	-9408
▁我认为汤姆可能	-9409
▁那只是你的想象	-9410
交通意外中受了伤	-9411
每天早上六点起床	-9412
ationship	-9413
awberries	-9414
restimate	-9415
▁absorbed	-9416
▁annoying	-9417
▁appeared	-9418
▁arriving	-9419
▁attacked	-9420
▁attended	-9421
▁bathroom	-9422
▁believed	-9423
▁ceremony	-9424
▁chairman	-9425
▁changing	-9426
▁clothing	-9427
▁compared	-9428
▁disaster	-9429
▁distance	-9430
▁document	-9431
▁entering	-9432
▁examined	-9433
▁exchange	-9434
▁expected	-9435
▁february	-9436
▁festival	-9437
▁fighting	-9438
▁football	-9439
▁generous	-9440
▁improved	-9441
▁incident	-9442
▁increase	-9443
▁industry	-9444
▁jealousy	-9445
▁knocking	-9446
▁overtime	-9447
▁politics	-9448
▁position	-9449
▁pregnant	-9450
▁punctual	-9451
▁punished	-9452
▁realized	-9453
▁remained	-9454
▁requires	-9455
▁romantic	-9456
▁sasayama	-9457
▁schedule	-9458
▁scotland	-9459
▁searched	-9460
▁shinjuku	-9461
▁solution	-9462
▁souvenir	-9463
▁spending	-9464
▁starting	-9465
▁stronger	-9466
▁subjects	-9467
▁suitable	-9468
▁watering	-9469
▁wondered	-9470
▁yokohama	-9471
▁他们都在寻找这个	-9472
▁你是那个建议我们	-9473
做了一条新裙子给我	-9474
▁announced	-9475
▁attempted	-9476
▁available	-9477
▁cafeteria	-9478
▁chocolate	-9479
▁cigarette	-9480
▁computers	-9481
▁congratul	-9482
▁currently	-9483
▁departure	-9484
▁dependent	-9485
▁direction	-9486
▁emergency	-9487
▁exhausted	-9488
▁explained	-9489
▁extremely	-9490
▁foreigner	-9491
▁housework	-9492
▁influence	-9493
▁innocence	-9494
▁introduce	-9495
▁moonlight	-9496
▁objection	-9497
▁operation	-9498
▁prevented	-9499
▁professor	-9500
▁recognize	-9501
▁referring	-9502
▁regularly	-9503
▁resembles	-9504
▁resources	-9505
▁sentences	-9506
▁seriously	-9507
▁suffering	-9508
▁surrender	-9509
▁thousands	-9510
▁wednesday	-9511
▁你来自加拿大的哪里	-9512
▁我会给你任何你想要	-9513
▁火车什么时候到横滨	-9514
学习的时候不要打扰我	-9515
▁appreciate	-9516
▁classmates	-9517
▁complained	-9518
▁considered	-9519
▁downstairs	-9520
▁equivalent	-9521
▁frightened	-9522
▁government	-9523
▁hamburgers	-9524
▁impression	-9525
▁newspapers	-9526
▁pretending	-9527
▁profession	-9528
▁recognized	-9529
▁successful	-9530
▁unexpected	-9531
▁他说的话根本毫无意义	-9532
▁我是网球俱乐部的会员	-9533
▁accompanied	-9534
▁complaining	-9535
▁composition	-9536
▁earthquakes	-9537
▁interpreter	-9538
▁participate	-9539
▁shakespeare	-9540
▁carelessness	-9541
▁particularly	-9542
▁relationship	-9543
▁strawberries	-9544
▁unfortunately	-9545
%.	-9546
++	-9547
.」	-9548
11	-9549
15	-9550
16	-9551
19	-9552
25	-9553
42	-9554
61	-9555
76	-9556
:“	-9557
:「	-9558
ah	-9559
dk	-9560
ff	-9561
ik	-9562
kn	-9563
ks	-9564
ne	-9565
ns	-9566
uy	-9567
ym	-9568
▁x	-9569
▁么	-9570
▁乘	-9571
▁云	-9572
▁代	-9573
▁以	-9574
▁伯	-9575
▁军	-9576
▁农	-9577
▁凡	-9578
▁利	-9579
▁务	-9580
▁发	-9581
▁叫	-9582
▁各	-9583
▁后	-9584
▁向	-9585
▁否	-9586
▁和	-9587
▁哈	-9588
▁售	-9589
▁嗨	-9590
▁墙	-9591
▁奶	-9592
▁宁	-9593
▁将	-9594
▁少	-9595
▁带	-9596
▁干	-9597
▁总	-9598
▁想	-9599
▁戴	-9600
▁按	-9601
▁搭	-9602
▁收	-9603
▁早	-9604
▁暑	-9605
▁木	-9606
▁本	-9607
▁查	-9608
▁死	-9609
▁清	-9610
▁游	-9611
▁溪	-9612
▁滚	-9613
▁燃	-9614
▁物	-9615
▁现	-9616
▁画	-9617
▁离	-9618
▁空	-9619
▁算	-9620
▁纸	-9621
▁聊	-9622
▁胡	-9623
▁获	-9624
▁行	-9625
▁观	-9626
▁货	-9627
▁趁	-9628
▁路	-9629
▁轮	-9630
▁辣	-9631
▁连	-9632
▁邮	-9633
▁酒	-9634
▁铃	-9635
▁难	-9636
▁靠	-9637
▁马	-9638
一千	-9639
一双	-9640
一口	-9641
一台	-9642
一排	-9643
一朵	-9644
一棵	-9645
一百	-9646
一部	-9647
一门	-9648
一颗	-9649
一餐	-9650
七岁	-9651
七月	-9652
三份	-9653
三倍	-9654
三周	-9655
三英	-9656
上吗	-9657
上海	-9658
上看	-9659
上花	-9660
上说	-9661
上过	-9662
上野	-9663
上锁	-9664
下定	-9665
下手	-9666
下次	-9667
下面	-9668
不上	-9669
不下	-9670
不少	-9671
不开	-9672
不明	-9673
不来	-9674
不清	-9675
不符	-9676
不著	-9677
不说	-9678
不足	-9679
不远	-9680
与众	-9681
专家	-9682
专注	-9683
专职	-9684
丢掉	-9685
两只	-9686
两点	-9687
个例	-9688
个多	-9689
个性	-9690
个错	-9691
中央	-9692
中旬	-9693
中生	-9694
中要	-9695
中餐	-9696
串的	-9697
临著	-9698
丹麦	-9699
为傲	-9700
为您	-9701
主题	-9702
久的	-9703
乎其	-9704
乐器	-9705
乐团	-9706
乐趣	-9707
乘了	-9708
九月	-9709
也是	-9710
乡间	-9711
书店	-9712
买它	-9713
乳酪	-9714
了些	-9715
了信	-9716
了吧	-9717
了婚	-9718
了茶	-9719
了路	-9720
争吵	-9721
事会	-9722
事先	-9723
事务	-9724
于我	-9725
于拉	-9726
井泽	-9727
些批	-9728
些钱	-9729
交了	-9730
交往	-9731
交易	-9732
交道	-9733
产生	-9734
享受	-9735
亮着	-9736
亲切	-9737
人口	-9738
人员	-9739
人能	-9740
人赠	-9741
仅仅	-9742
从未	-9743
从桥	-9744
他人	-9745
他作	-9746
他将	-9747
他没	-9748
付帐	-9749
仙台	-9750
代价	-9751
代替	-9752
代理	-9753
以偿	-9754
以及	-9755
以雾	-9756
仪式	-9757
们在	-9758
任教	-9759
伏特	-9760
休看	-9761
优势	-9762
伙人	-9763
会下	-9764
会再	-9765
会回	-9766
会对	-9767
会是	-9768
会用	-9769
传统	-9770
伴奏	-9771
位于	-9772
低于	-9773
住口	-9774
住址	-9775
体验	-9776
作弊	-9777
作用	-9778
你一	-9779
你别	-9780
你得	-9781
你用	-9782
佩服	-9783
例外	-9784
供给	-9785
依旧	-9786
依然	-9787
侵犯	-9788
便条	-9789
俄罗	-9790
保留	-9791
信号	-9792
信吗	-9793
倒下	-9794
倒闭	-9795
倔强	-9796
候室	-9797
借你	-9798
借钱	-9799
假发	-9800
偏见	-9801
做些	-9802
做梦	-9803
做点	-9804
做菜	-9805
做过	-9806
做这	-9807
做错	-9808
偶遇	-9809
傍晚	-9810
傲慢	-9811
傻瓜	-9812
像机	-9813
充足	-9814
先生	-9815
光滑	-9816
光着	-9817
光碟	-9818
光线	-9819
光荣	-9820
克服	-9821
全家	-9822
全靠	-9823
八十	-9824
公分	-9825
公尺	-9826
公开	-9827
公里	-9828
关掉	-9829
关着	-9830
内疚	-9831
再看	-9832
再要	-9833
冒险	-9834
冠军	-9835
冥想	-9836
冰激	-9837
冲浪	-9838
冷了	-9839
冷的	-9840
减少	-9841
减弱	-9842
几号	-9843
几间	-9844
出售	-9845
刀吗	-9846
分为	-9847
分享	-9848
分成	-9849
刚从	-9850
刚刚	-9851
别想	-9852
到期	-9853
到来	-9854
到的	-9855
到第	-9856
制度	-9857
制的	-9858
制造	-9859
刹车	-9860
前做	-9861
前开	-9862
前来	-9863
前走	-9864
前门	-9865
剧场	-9866
剧院	-9867
力的	-9868
劝告	-9869
加在	-9870
加坡	-9871
加尔	-9872
动机	-9873
助手	-9874
助理	-9875
劲的	-9876
勉强	-9877
包包	-9878
化学	-9879
北京	-9880
区分	-9881
区里	-9882
医学	-9883
医疗	-9884
十日	-9885
升高	-9886
半球	-9887
华盛	-9888
单行	-9889
卖得	-9890
卡片	-9891
印刷	-9892
原子	-9893
厨艺	-9894
去打	-9895
去爬	-9896
去的	-9897
参与	-9898
又旧	-9899
叉子	-9900
双鞋	-9901
发出	-9902
发表	-9903
发觉	-9904
取代	-9905
取得	-9906
取悦	-9907
取笑	-9908
变为	-9909
变了	-9910
变糟	-9911
变胖	-9912
口处	-9913
口语	-9914
古典	-9915
古怪	-9916
只想	-9917
只蛋	-9918
只鸟	-9919
叫了	-9920
叫她	-9921
召开	-9922
叮了	-9923
可怜	-9924
可的	-9925
可说	-9926
史密	-9927
右手	-9928
叶子	-9929
吃米	-9930
合作	-9931
合国	-9932
合身	-9933
同一	-9934
同班	-9935
名单	-9936
名男	-9937
后喝	-9938
后来	-9939
后果	-9940
后退	-9941
向他	-9942
向西	-9943
吓唬	-9944
含有	-9945
听他	-9946
听你	-9947
听听	-9948
听懂	-9949
听着	-9950
吸尘	-9951
吹风	-9952
周六	-9953
周我	-9954
命令	-9955
命运	-9956
和手	-9957
和猫	-9958
和谁	-9959
咖哩	-9960
品质	-9961
响起	-9962
哪一	-9963
哭得	-9964
哺乳	-9965
唱会	-9966
唱得	-9967
商业	-9968
商人	-9969
商量	-9970
喝些	-9971
喝醉	-9972
噪声	-9973
四周	-9974
回了	-9975
回电	-9976
因酒	-9977
围墙	-9978
图画	-9979
圆脸	-9980
圣经	-9981
在二	-9982
在你	-9983
在增	-9984
在外	-9985
在大	-9986
在月	-9987
在校	-9988
在浴	-9989
在湖	-9990
在火	-9991
在的	-9992
在节	-9993
在草	-9994
地下	-9995
地忙	-9996
地抱	-9997
地来	-9998
地毯	-9999
坦率	-10000
型的	-10001
垒球	-10002
埃及	-10003
基本	-10004
塑料	-10005
塔吗	-10006
填写	-10007
墨水	-10008
墨西	-10009
士河	-10010
声明	-10011
声称	-10012
复杂	-10013
夕阳	-10014
外交	-10015
多了	-10016
多于	-10017
多云	-10018
多大	-10019
多常	-10020
多年	-10021
大厅	-10022
大意	-10023
大方	-10024
大树	-10025
大洞	-10026
大火	-10027
大致	-10028
天使	-10029
天助	-10030
天堂	-10031
天天	-10032
天然	-10033
天的	-10034
太占	-10035
太好	-10036
太热	-10037
太窄	-10038
夫妇	-10039
失了	-10040
失控	-10041
夹克	-10042
奇迹	-10043
女性	-10044
她也	-10045
她会	-10046
她像	-10047
好书	-10048
好友	-10049
好奇	-10050
好是	-10051
如愿	-10052
姊妹	-10053
婴孩	-10054
子就	-10055
子比	-10056
子的	-10057
学期	-10058
它会	-10059
定下	-10060
实点	-10061
实用	-10062
客厅	-10063
室内	-10064
家乡	-10065
容忍	-10066
宾馆	-10067
寂寞	-10068
寂静	-10069
密切	-10070
对吗	-10071
对吧	-10072
对话	-10073
寻常	-10074
寻求	-10075
将来	-10076
将被	-10077
将要	-10078
小镇	-10079
小麦	-10080
少的	-10081
就做	-10082
就寝	-10083
就有	-10084
就来	-10085
尽兴	-10086
尽早	-10087
尾巴	-10088
层楼	-10089
屋顶	-10090
履行	-10091
山上	-10092
山脚	-10093
岛上	-10094
州的	-10095
工业	-10096
巨大	-10097
差的	-10098
巴西	-10099
市区	-10100
布做	-10101
帆船	-10102
帐篷	-10103
带了	-10104
席卷	-10105
常在	-10106
干扰	-10107
平等	-10108
并非	-10109
幸存	-10110
广岛	-10111
床单	-10112
应当	-10113
店里	-10114
度是	-10115
度过	-10116
延长	-10117
建的	-10118
开个	-10119
开放	-10120
开灯	-10121
开玩	-10122
开窗	-10123
弄湿	-10124
引用	-10125
张开	-10126
张木	-10127
强迫	-10128
当只	-10129
形状	-10130
彩票	-10131
待到	-10132
很酸	-10133
很锋	-10134
得三	-10135
得快	-10136
得懂	-10137
得晚	-10138
得走	-10139
得跟	-10140
心所	-10141
心的	-10142
忘在	-10143
快跑	-10144
念书	-10145
急于	-10146
怪人	-10147
总要	-10148
恐惧	-10149
恨他	-10150
悄悄	-10151
想像	-10152
想出	-10153
意志	-10154
愤怒	-10155
慢了	-10156
懂了	-10157
成名	-10158
成碎	-10159
我从	-10160
我再	-10161
我吃	-10162
我同	-10163
我对	-10164
我把	-10165
我无	-10166
我最	-10167
我真	-10168
我认	-10169
我走	-10170
房里	-10171
手套	-10172
手帕	-10173
手段	-10174
手的	-10175
才会	-10176
打个	-10177
打了	-10178
打包	-10179
打断	-10180
打牌	-10181
扔掉	-10182
找了	-10183
找他	-10184
找你	-10185
找我	-10186
承受	-10187
承担	-10188
把伞	-10189
把她	-10190
把火	-10191
把这	-10192
把钱	-10193
投入	-10194
投降	-10195
护车	-10196
抬起	-10197
拆除	-10198
拍拍	-10199
拐杖	-10200
拖延	-10201
拥抱	-10202
拯救	-10203
拷贝	-10204
拿到	-10205
拿它	-10206
拿错	-10207
挂着	-10208
挂著	-10209
指控	-10210
按下	-10211
按照	-10212
挟在	-10213
挡住	-10214
挣了	-10215
捉弄	-10216
损害	-10217
捡起	-10218
换成	-10219
探讨	-10220
接你	-10221
接我	-10222
控告	-10223
推销	-10224
提示	-10225
插手	-10226
握着	-10227
搁了	-10228
摆脱	-10229
摇动	-10230
摘花	-10231
播放	-10232
收银	-10233
攻击	-10234
放了	-10235
放入	-10236
政策	-10237
敌人	-10238
敏感	-10239
教书	-10240
教练	-10241
散了	-10242
数量	-10243
整洁	-10244
文化	-10245
斯的	-10246
新款	-10247
新生	-10248
新鞋	-10249
新鲜	-10250
无故	-10251
无权	-10252
既不	-10253
日历	-10254
日游	-10255
旧书	-10256
旧车	-10257
早晚	-10258
早的	-10259
时代	-10260
时光	-10261
时地	-10262
时尚	-10263
时期	-10264
时请	-10265
明确	-10266
映像	-10267
是以	-10268
是大	-10269
是满	-10270
是要	-10271
是违	-10272
是非	-10273
显著	-10274
晕了	-10275
普遍	-10276
智了	-10277
暖气	-10278
暗恋	-10279
暗示	-10280
曲子	-10281
最新	-10282
最深	-10283
月亮	-10284
月前	-10285
有两	-10286
有五	-10287
有六	-10288
有几	-10289
有四	-10290
有害	-10291
有权	-10292
有比	-10293
有的	-10294
有长	-10295
望著	-10296
期备	-10297
期限	-10298
未必	-10299
本周	-10300
本意	-10301
本该	-10302
机吗	-10303
杂草	-10304
杉矶	-10305
村子	-10306
村屋	-10307
条街	-10308
条路	-10309
来一	-10310
来杯	-10311
来这	-10312
松开	-10313
极其	-10314
林中	-10315
柜台	-10316
柜子	-10317
树干	-10318
树立	-10319
树荫	-10320
根烟	-10321
案在	-10322
桌前	-10323
梯子	-10324
棒了	-10325
楼下	-10326
楼里	-10327
模型	-10328
樱花	-10329
欠你	-10330
欠我	-10331
次的	-10332
欺骗	-10333
歌唱	-10334
正式	-10335
正要	-10336
此事	-10337
死的	-10338
殖民	-10339
母爱	-10340
母鸡	-10341
每次	-10342
毒品	-10343
比说	-10344
毛毯	-10345
毫不	-10346
毯子	-10347
民主	-10348
气味	-10349
水中	-10350
水稻	-10351
永不	-10352
池里	-10353
污染	-10354
汤里	-10355
沙哑	-10356
没了	-10357
没去	-10358
没在	-10359
没带	-10360
没用	-10361
没能	-10362
没课	-10363
没钱	-10364
没错	-10365
河流	-10366
油漆	-10367
法官	-10368
法文	-10369
法的	-10370
泪流	-10371
洗碗	-10372
洗过	-10373
活著	-10374
洽商	-10375
测试	-10376
海洋	-10377
消耗	-10378
消费	-10379
淋得	-10380
淡水	-10381
深夜	-10382
深深	-10383
深的	-10384
清白	-10385
渐渐	-10386
游览	-10387
湖泊	-10388
湿了	-10389
满面	-10390
漆成	-10391
漆黑	-10392
漫画	-10393
漫长	-10394
潮湿	-10395
澄清	-10396
火了	-10397
火柴	-10398
炸弹	-10399
点觉	-10400
点钱	-10401
烟味	-10402
烤了	-10403
烧开	-10404
热情	-10405
烹饪	-10406
照的	-10407
照相	-10408
熬夜	-10409
爬了	-10410
爬过	-10411
爱上	-10412
片刻	-10413
牙痛	-10414
牛排	-10415
牡蛎	-10416
狗吃	-10417
狗吗	-10418
狗屋	-10419
狗的	-10420
独立	-10421
猫吗	-10422
猫喂	-10423
玩了	-10424
玩牌	-10425
环境	-10426
环绕	-10427
班车	-10428
班里	-10429
球上	-10430
生下	-10431
生了	-10432
生存	-10433
生病	-10434
生素	-10435
用了	-10436
用吗	-10437
用处	-10438
用手	-10439
画家	-10440
画有	-10441
留下	-10442
留学	-10443
留言	-10444
疑惑	-10445
症状	-10446
痛了	-10447
登出	-10448
登山	-10449
登记	-10450
白发	-10451
白色	-10452
白酒	-10453
百货	-10454
的了	-10455
的争	-10456
的地	-10457
的旅	-10458
的无	-10459
的更	-10460
的树	-10461
的歌	-10462
的比	-10463
的知	-10464
的罪	-10465
的背	-10466
的行	-10467
的长	-10468
的门	-10469
皆有	-10470
盐吗	-10471
盖上	-10472
盘子	-10473
直走	-10474
相反	-10475
看出	-10476
看向	-10477
看完	-10478
真美	-10479
眼吗	-10480
眼泪	-10481
着我	-10482
着狗	-10483
睁开	-10484
睡到	-10485
睡眠	-10486
瞎了	-10487
短袖	-10488
矮了	-10489
砸坏	-10490
碗盘	-10491
磁带	-10492
祝贺	-10493
票价	-10494
祸首	-10495
离家	-10496
私人	-10497
种植	-10498
积雪	-10499
称为	-10500
移民	-10501
程中	-10502
程式	-10503
稍微	-10504
究竟	-10505
空姐	-10506
窗外	-10507
窗帘	-10508
站了	-10509
竞选	-10510
笑容	-10511
笔吗	-10512
等于	-10513
答复	-10514
策略	-10515
筷子	-10516
筹备	-10517
篱笆	-10518
粉刷	-10519
粗鲁	-10520
精心	-10521
精神	-10522
系列	-10523
素食	-10524
紧紧	-10525
繁星	-10526
红茶	-10527
约了	-10528
纸吗	-10529
线图	-10530
线被	-10531
组成	-10532
经理	-10533
经营	-10534
给魔	-10535
绽放	-10536
缩写	-10537
缺席	-10538
罢工	-10539
罪行	-10540
羊毛	-10541
美分	-10542
美圆	-10543
美得	-10544
翼地	-10545
老得	-10546
老虎	-10547
而是	-10548
耶稣	-10549
聊天	-10550
职位	-10551
联络	-10552
肥皂	-10553
胃口	-10554
胃痛	-10555
背上	-10556
背后	-10557
胡椒	-10558
胶水	-10559
能再	-10560
能懂	-10561
能走	-10562
脏了	-10563
腾出	-10564
自信	-10565
自言	-10566
自语	-10567
自身	-10568
舞跳	-10569
航班	-10570
艰苦	-10571
节目	-10572
花瓣	-10573
花钱	-10574
英俊	-10575
英镑	-10576
草地	-10577
荒唐	-10578
药物	-10579
荷兰	-10580
获得	-10581
萝卜	-10582
蓝色	-10583
虚弱	-10584
蜜蜂	-10585
融洽	-10586
蟋蟀	-10587
血压	-10588
行事	-10589
街角	-10590
表哥	-10591
表格	-10592
被请	-10593
装病	-10594
裸着	-10595
要为	-10596
要养	-10597
要好	-10598
要对	-10599
要打	-10600
观察	-10601
解开	-10602
警报	-10603
认出	-10604
让小	-10605
让手	-10606
训练	-10607
记性	-10608
讲座	-10609
设想	-10610
证实	-10611
证据	-10612
评价	-10613
评论	-10614
词典	-10615
词汇	-10616
译成	-10617
试了	-10618
试过	-10619
话了	-10620
该懂	-10621
该睡	-10622
语法	-10623
误会	-10624
误解	-10625
说是	-10626
请我	-10627
请求	-10628
课本	-10629
谁要	-10630
谈一	-10631
谈过	-10632
谢我	-10633
豆子	-10634
象棋	-10635
贝壳	-10636
贵的	-10637
贷款	-10638
资料	-10639
赏力	-10640
赛跑	-10641
赞同	-10642
赢得	-10643
走到	-10644
走失	-10645
走来	-10646
超级	-10647
超速	-10648
越多	-10649
足以	-10650
跌倒	-10651
距离	-10652
跟踪	-10653
身份	-10654
身后	-10655
躲雨	-10656
车卖	-10657
轮流	-10658
辞掉	-10659
过夜	-10660
过头	-10661
过得	-10662
过这	-10663
运转	-10664
运送	-10665
还不	-10666
还债	-10667
还有	-10668
还能	-10669
这只	-10670
这起	-10671
远了	-10672
远吗	-10673
远处	-10674
违背	-10675
连络	-10676
迷于	-10677
迹象	-10678
退了	-10679
送你	-10680
送行	-10681
逃了	-10682
选举	-10683
透了	-10684
透露	-10685
途径	-10686
通缉	-10687
通行	-10688
遭到	-10689
遵循	-10690
避开	-10691
那位	-10692
那台	-10693
那家	-10694
那条	-10695
那话	-10696
部长	-10697
都像	-10698
都去	-10699
都长	-10700
鄙视	-10701
酒吧	-10702
酱汁	-10703
醒来	-10704
里了	-10705
重复	-10706
重新	-10707
重点	-10708
重病	-10709
重量	-10710
量的	-10711
钱你	-10712
铃薯	-10713
锻炼	-10714
长寿	-10715
门后	-10716
门吗	-10717
闪电	-10718
闭嘴	-10719
问她	-10720
闯入	-10721
闯进	-10722
间吗	-10723
闹钟	-10724
队员	-10725
阳伞	-10726
阵雨	-10727
降低	-10728
院子	-10729
陪伴	-10730
随身	-10731
隐瞒	-10732
隐私	-10733
隧道	-10734
难吗	-10735
难学	-10736
集中	-10737
雕像	-10738
雨下	-10739
雨季	-10740
雨衣	-10741
零度	-10742
震惊	-10743
靠左	-10744
面粉	-10745
面试	-10746
靴子	-10747
项目	-10748
顺利	-10749
顿饭	-10750
预期	-10751
额外	-10752
风险	-10753
食欲	-10754
饼吗	-10755
首都	-10756
香蕉	-10757
马口	-10758
马车	-10759
驾车	-10760
骗子	-10761
高楼	-10762
鬼脸	-10763
鲑鱼	-10764
鸟儿	-10765
鹦鹉	-10766
麻将	-10767
黄油	-10768
鼻子	-10769
500	-10770
aik	-10771
aki	-10772
ano	-10773
arr	-10774
asp	-10775
asy	-10776
avy	-10777
bec	-10778
cto	-10779
eno	-10780
ept	-10781
ges	-10782
gly	-10783
ico	-10784
ify	-10785
igr	-10786
ipl	-10787
iro	-10788
isp	-10789
isy	-10790
ita	-10791
itz	-10792
ium	-10793
jud	-10794
ked	-10795
ler	-10796
min	-10797
nel	-10798
oci	-10799
ody	-10800
olc	-10801
ony	-10802
oop	-10803
pic	-10804
reg	-10805
rot	-10806
sle	-10807
uiz	-10808
ung	-10809
uts	-10810
uum	-10811
yes	-10812
zen	-10813
▁12	-10814
▁16	-10815
▁19	-10816
▁3.	-10817
▁90	-10818
▁hi	-10819
▁ir	-10820
▁oh	-10821
▁ox	-10822
▁ru	-10823
▁一年	-10824
▁上帝	-10825
▁上楼	-10826
▁下一	-10827
▁下午	-10828
▁中国	-10829
▁么女	-10830
▁事实	-10831
▁亚洲	-10832
▁交通	-10833
▁人生	-10834
▁人类	-10835
▁人要	-10836
▁他全	-10837
▁他刮	-10838
▁他到	-10839
▁他唱	-10840
▁他好	-10841
▁他带	-10842
▁他常	-10843
▁他戴	-10844
▁他扔	-10845
▁他敲	-10846
▁他每	-10847
▁他爱	-10848
▁他玩	-10849
▁他画	-10850
▁他该	-10851
▁他误	-10852
▁他走	-10853
▁他跑	-10854
▁他靠	-10855
▁他骑	-10856
▁以后	-10857
▁价格	-10858
▁似乎	-10859
▁体育	-10860
▁你别	-10861
▁你去	-10862
▁你家	-10863
▁你收	-10864
▁你穿	-10865
▁你脸	-10866
▁你让	-10867
▁你读	-10868
▁使用	-10869
▁借我	-10870
▁兔子	-10871
▁六除	-10872
▁关闭	-10873
▁冰岛	-10874
▁冷静	-10875
▁出去	-10876
▁利率	-10877
▁别动	-10878
▁别忘	-10879
▁别来	-10880
▁前天	-10881
▁十年	-10882
▁卫生	-10883
▁印度	-10884
▁历史	-10885
▁可惜	-10886
▁台风	-10887
▁同样	-10888
▁咖啡	-10889
▁咱们	-10890
▁在他	-10891
▁在新	-10892
▁地图	-10893
▁地球	-10894
▁地震	-10895
▁坚持	-10896
▁士兵	-10897
▁外面	-10898
▁多美	-10899
ahj	-10900
dka	-10901
uya	-10902
▁代我	-10903
▁后天	-10904
▁大象	-10905
▁天上	-10906
▁天黑	-10907
▁女孩	-10908
▁她下	-10909
▁她买	-10910
▁她到	-10911
▁她十	-10912
▁她咬	-10913
▁她太	-10914
▁她教	-10915
▁她让	-10916
▁她骂	-10917
▁好久	-10918
▁好像	-10919
▁嫉妒	-10920
▁它们	-10921
▁它花	-10922
▁安静	-10923
▁实话	-10924
▁小孩	-10925
▁小镇	-10926
▁山坡	-10927
▁工作	-10928
▁带我	-10929
▁应该	-10930
▁开车	-10931
▁当她	-10932
▁当时	-10933
▁当然	-10934
▁快要	-10935
▁怎么	-10936
▁总是	-10937
▁总统	-10938
▁您该	-10939
▁感谢	-10940
▁我住	-10941
▁我冷	-10942
▁我出	-10943
▁我前	-10944
▁我又	-10945
▁我好	-10946
▁我学	-10947
▁我带	-10948
▁我快	-10949
▁我恨	-10950
▁我所	-10951
▁我接	-10952
▁我曾	-10953
▁我比	-10954
▁我爸	-10955
▁我祇	-10956
▁我见	-10957
▁我让	-10958
▁我载	-10959
▁我饿	-10960
▁或许	-10961
▁房子	-10962
▁把手	-10963
▁把球	-10964
▁数学	-10965
▁整个	-10966
▁新娘	-10967
▁既然	-10968
▁时钟	-10969
▁时间	-10970
▁星星	-10971
▁晚上	-10972
▁服务	-10973
▁林肯	-10974
▁树叶	-10975
▁步行	-10976
▁母亲	-10977
▁每天	-10978
▁比较	-10979
▁水在	-10980
▁水星	-10981
▁沿着	-10982
▁派对	-10983
▁浴室	-10984
▁海王	-10985
▁消防	-10986
▁演出	-10987
▁火警	-10988
▁狐狸	-10989
▁王子	-10990
▁瑞士	-10991
▁盒子	-10992
▁看到	-10993
▁看看	-10994
▁科学	-10995
▁站在	-10996
▁第二	-10997
▁等到	-10998
▁箱子	-10999
▁经过	-11000
▁绳子	-11001
▁老板	-11002
▁能否	-11003
▁自助	-11004
▁船被	-11005
▁苍蝇	-11006
▁苹果	-11007
▁行动	-11008
▁让他	-11009
▁记得	-11010
▁试图	-11011
▁诚实	-11012
▁该法	-11013
▁说谎	-11014
▁请为	-11015
▁请先	-11016
▁请用	-11017
▁请稍	-11018
▁课程	-11019
▁谁在	-11020
▁谁将	-11021
▁走吧	-11022
▁走开	-11023
▁足球	-11024
▁车站	-11025
▁还没	-11026
▁这份	-11027
▁这会	-11028
▁这把	-11029
▁这栋	-11030
▁这样	-11031
▁这次	-11032
▁这班	-11033
▁那人	-11034
▁那天	-11035
▁那样	-11036
▁那真	-11037
▁那里	-11038
▁邮局	-11039
▁醒醒	-11040
▁钱买	-11041
▁闭嘴	-11042
▁随时	-11043
▁雪从	-11044
▁雪梨	-11045
▁需要	-11046
▁面包	-11047
▁顺便	-11048
▁饥饿	-11049
▁骄傲	-11050
一个大	-11051
一个接	-11052
一个摄	-11053
一个的	-11054
一个认	-11055
一些肉	-11056
一些花	-11057
一件事	-11058
一句话	-11059
一天假	-11060
一天建	-11061
一幅画	-11062
一张票	-11063
一张纸	-11064
一条是	-11065
一条路	-11066
一样忙	-11067
一样快	-11068
一样的	-11069
一点儿	-11070
一点吗	-11071
七世纪	-11072
七点可	-11073
三个人	-11074
三分钟	-11075
三小时	-11076
三年了	-11077
三点钟	-11078
三美元	-11079
三英寸	-11080
上了门	-11081
上发现	-11082
上周末	-11083
上唱歌	-11084
上班族	-11085
上班的	-11086
下一个	-11087
下一次	-11088
下一班	-11089
下了车	-11090
下休息	-11091
下国际	-11092
下大雨	-11093
下帽子	-11094
下很多	-11095
下雨的	-11096
不一样	-11097
不上学	-11098
不了解	-11099
不会再	-11100
不会见	-11101
不会说	-11102
不会赢	-11103
不动了	-11104
不包含	-11105
不及格	-11106
不存在	-11107
不工作	-11108
不应该	-11109
不想喝	-11110
不明白	-11111
不是它	-11112
不正常	-11113
不流行	-11114
不确定	-11115
不礼貌	-11116
不能做	-11117
不让我	-11118
不记得	-11119
两件事	-11120
两天内	-11121
两小时	-11122
两次牙	-11123
两点钟	-11124
严重的	-11125
个例子	-11126
个医生	-11127
个月了	-11128
个苹果	-11129
中出现	-11130
中受伤	-11131
中国菜	-11132
中恢复	-11133
中没有	-11134
中要害	-11135
丰富的	-11136
为你的	-11137
为我做	-11138
为这个	-11139
主义者	-11140
之前先	-11141
乎其微	-11142
九点钟	-11143
也不会	-11144
也不想	-11145
也不愿	-11146
也不要	-11147
也就是	-11148
也没用	-11149
习惯了	-11150
书在哪	-11151
买一支	-11152
买一辆	-11153
买不起	-11154
买了书	-11155
买了它	-11156
买给我	-11157
买辆车	-11158
了一切	-11159
了一幅	-11160
了一座	-11161
了一整	-11162
了一根	-11163
了一首	-11164
了下来	-11165
了她的	-11166
了我们	-11167
了新的	-11168
了电话	-11169
二十岁	-11170
于他的	-11171
于拉丁	-11172
于携带	-11173
些批萨	-11174
京都吗	-11175
京都的	-11176
人很好	-11177
人赠马	-11178
人面前	-11179
什么样	-11180
什么比	-11181
从东方	-11182
从北边	-11183
从哪个	-11184
从国外	-11185
从学校	-11186
从桥下	-11187
从法国	-11188
从窗户	-11189
从这里	-11190
从那里	-11191
他下楼	-11192
他们不	-11193
他们家	-11194
他们是	-11195
他儿子	-11196
他到了	-11197
他去了	-11198
他感动	-11199
他打开	-11200
他有个	-11201
他犯了	-11202
他生气	-11203
他的书	-11204
他的手	-11205
他的新	-11206
他知道	-11207
他能够	-11208
他自己	-11209
他诚实	-11210
付租金	-11211
代理人	-11212
以它的	-11213
们说话	-11214
价活动	-11215
份工作	-11216
伏特加	-11217
会下雨	-11218
会下雪	-11219
会在家	-11220
会想起	-11221
会明白	-11222
会有人	-11223
传统的	-11224
伤害你	-11225
伤心地	-11226
但他不	-11227
但他还	-11228
但我听	-11229
但我想	-11230
但玛丽	-11231
住了一	-11232
住你的	-11233
体育馆	-11234
体重了	-11235
作一次	-11236
作准备	-11237
你不想	-11238
你想去	-11239
你是否	-11240
你没有	-11241
你的气	-11242
你的脸	-11243
你的错	-11244
你觉得	-11245
你说的	-11246
你阅读	-11247
保密的	-11248
倒闭了	-11249
值得吗	-11250
做不成	-11251
做了个	-11252
做任何	-11253
做到吗	-11254
做成的	-11255
做晚饭	-11256
做的吗	-11257
停止了	-11258
偷了钱	-11259
像一个	-11260
像他的	-11261
像汤姆	-11262
光荣地	-11263
免费的	-11264
全新的	-11265
八小时	-11266
八点钟	-11267
六个月	-11268
六小时	-11269
六点前	-11270
六点半	-11271
共同点	-11272
关心钱	-11273
关门吗	-11274
其实我	-11275
其实没	-11276
再跟他	-11277
写下来	-11278
冬天去	-11279
冰激凌	-11280
决定买	-11281
决心要	-11282
减弱了	-11283
减轻了	-11284
几乎被	-11285
几岁时	-11286
出发延	-11287
出国了	-11288
出现了	-11289
出生于	-11290
分之三	-11291
创造了	-11292
别人看	-11293
到她的	-11294
到旅馆	-11295
到纽约	-11296
到达时	-11297
到那儿	-11298
制成的	-11299
力很强	-11300
加尔湖	-11301
努力都	-11302
十六岁	-11303
十年前	-11304
十美元	-11305
华盛顿	-11306
协助你	-11307
卧室里	-11308
去东京	-11309
去了我	-11310
去国外	-11311
去度假	-11312
去新宿	-11313
去旅行	-11314
去购物	-11315
又犯了	-11316
友好的	-11317
双鞋子	-11318
发明的	-11319
发现的	-11320
发生的	-11321
叔叔家	-11322
变暗了	-11323
变老了	-11324
变胖了	-11325
口袋里	-11326
只有一	-11327
只狐狸	-11328
只狗和	-11329
叫醒我	-11330
可以接	-11331
可否认	-11332
可怕的	-11333
可能性	-11334
可能该	-11335
史密斯	-11336
吃太多	-11337
吃很多	-11338
吃比萨	-11339
吃生鱼	-11340
吃米饭	-11341
吃蔬菜	-11342
吃这个	-11343
吃饭时	-11344
吃鸡蛋	-11345
各地都	-11346
同意他	-11347
同意你	-11348
名男子	-11349
后成为	-11350
后离开	-11351
后驾驶	-11352
向我们	-11353
听不见	-11354
听到她	-11355
听到它	-11356
听说了	-11357
吸尘器	-11358
和他谈	-11359
和大阪	-11360
和法语	-11361
和火车	-11362
和男生	-11363
唱歌了	-11364
唱歌吗	-11365
喜欢上	-11366
喜欢在	-11367
喜欢它	-11368
喜欢我	-11369
喜欢狗	-11370
喜欢猫	-11371
喝牛奶	-11372
喝酒醉	-11373
喝醉了	-11374
四匹马	-11375
回家呢	-11376
因为有	-11377
在一个	-11378
在三楼	-11379
在伦敦	-11380
在六月	-11381
在北京	-11382
在四楼	-11383
在地毯	-11384
在增长	-11385
在天黑	-11386
在学校	-11387
在家吗	-11388
在山丘	-11389
在巴黎	-11390
在床上	-11391
在等你	-11392
在罗马	-11393
在英国	-11394
在谈论	-11395
在车站	-11396
在这场	-11397
在那个	-11398
在那儿	-11399
在黑暗	-11400
地工作	-11401
地铁站	-11402
场会议	-11403
坏消息	-11404
坐哪儿	-11405
坐火车	-11406
墨西哥	-11407
复杂的	-11408
外套吗	-11409
多一点	-11410
多少次	-11411
多很多	-11412
大多数	-11413
大女儿	-11414
大学的	-11415
大家庭	-11416
大衣穿	-11417
大部分	-11418
天气会	-11419
太可能	-11420
太短了	-11421
失去理	-11422
失控了	-11423
失败的	-11424
她出去	-11425
她昨晚	-11426
她父亲	-11427
她现在	-11428
她的车	-11429
好主意	-11430
好多了	-11431
好得多	-11432
好歌手	-11433
好消息	-11434
好电影	-11435
子比水	-11436
学习了	-11437
学会了	-11438
学到了	-11439
学生中	-11440
学生吗	-11441
学生的	-11442
孩子了	-11443
安全吗	-11444
安全的	-11445
完全变	-11446
完成的	-11447
客满了	-11448
害怕了	-11449
家人吗	-11450
家商店	-11451
家在哪	-11452
容易的	-11453
寄给她	-11454
对我很	-11455
对我说	-11456
对政治	-11457
对的吗	-11458
封长信	-11459
将抵达	-11460
小一点	-11461
小婴孩	-11462
小孩儿	-11463
小心翼	-11464
就会去	-11465
就像在	-11466
就完成	-11467
尽全力	-11468
尽力了	-11469
工作是	-11470
工作的	-11471
巨大的	-11472
差劲的	-11473
差点被	-11474
希尔顿	-11475
带我的	-11476
带来了	-11477
带眼镜	-11478
帮不了	-11479
帮助她	-11480
帮妈妈	-11481
帮忙吗	-11482
帮玛丽	-11483
干净吗	-11484
干净的	-11485
干毛巾	-11486
年以前	-11487
年轻时	-11488
并没有	-11489
废除了	-11490
座位了	-11491
建议他	-11492
开始吧	-11493
开始就	-11494
开玩笑	-11495
开著吗	-11496
开门吗	-11497
张照片	-11498
强烈的	-11499
当上了	-11500
录取了	-11501
很不错	-11502
很久了	-11503
很乐意	-11504
很了解	-11505
很合身	-11506
很困难	-11507
很多人	-11508
很多吃	-11509
很奇怪	-11510
很愉快	-11511
很擅长	-11512
很早就	-11513
很明显	-11514
很有用	-11515
很清楚	-11516
很温暖	-11517
很熟悉	-11518
很美味	-11519
很舒服	-11520
很辛苦	-11521
很适合	-11522
很锋利	-11523
得厉害	-11524
得很大	-11525
得很对	-11526
得很快	-11527
心不在	-11528
心所欲	-11529
必须有	-11530
忍不住	-11531
忙于写	-11532
快来了	-11533
怎么烧	-11534
怕犯错	-11535
总是说	-11536
总让我	-11537
恨汤姆	-11538
您一个	-11539
您必须	-11540
情况下	-11541
惊呆了	-11542
想什么	-11543
想到你	-11544
想成为	-11545
想跟你	-11546
愉快吗	-11547
感觉到	-11548
感谢您	-11549
感谢我	-11550
懂德语	-11551
成为了	-11552
成功了	-11553
成功地	-11554
成功要	-11555
成碎片	-11556
我一直	-11557
我也会	-11558
我以前	-11559
我们吗	-11560
我们能	-11561
我们要	-11562
我们都	-11563
我几乎	-11564
我发现	-11565
我叔叔	-11566
我和你	-11567
我就会	-11568
我希望	-11569
我很累	-11570
我总是	-11571
我无法	-11572
我明天	-11573
我来做	-11574
我没法	-11575
我的事	-11576
我的脚	-11577
我的腿	-11578
我的钱	-11579
我的错	-11580
我看过	-11581
我要去	-11582
我说谎	-11583
我身边	-11584
我都是	-11585
我非常	-11586
戒烟了	-11587
战争中	-11588
房间的	-11589
所做的	-11590
所在的	-11591
所有事	-11592
所有钱	-11593
手放在	-11594
打交道	-11595
打字员	-11596
打开门	-11597
打来的	-11598
打碎了	-11599
扔垃圾	-11600
扔石头	-11601
找他的	-11602
找时间	-11603
找的人	-11604
把东西	-11605
把他的	-11606
把帽子	-11607
把我的	-11608
把火扑	-11609
把这个	-11610
把钥匙	-11611
护士呢	-11612
抱怨了	-11613
抵达了	-11614
担心的	-11615
拒绝了	-11616
拒绝做	-11617
拜访他	-11618
拿出来	-11619
拿起了	-11620
挂起来	-11621
换我的	-11622
接下来	-11623
接着天	-11624
推迟了	-11625
推销员	-11626
提供了	-11627
提行李	-11628
搞错了	-11629
摧毁了	-11630
撞上了	-11631
播放机	-11632
支钢笔	-11633
支铅笔	-11634
改变了	-11635
故意犯	-11636
故障了	-11637
救护车	-11638
教室里	-11639
敢这样	-11640
散散步	-11641
料理吗	-11642
斯的贝	-11643
新学校	-11644
新来的	-11645
新电脑	-11646
方向感	-11647
无礼的	-11648
无选择	-11649
早一点	-11650
早到了	-11651
早点来	-11652
时间做	-11653
时间在	-11654
时间来	-11655
时间表	-11656
明天前	-11657
星期了	-11658
昨天的	-11659
是一件	-11660
是一颗	-11661
是个有	-11662
是否会	-11663
是哺乳	-11664
是属于	-11665
是很难	-11666
是我们	-11667
是日本	-11668
是法语	-11669
是湿的	-11670
是谁吗	-11671
是高兴	-11672
晚一点	-11673
晚上我	-11674
晚到了	-11675
普通的	-11676
更安全	-11677
更清楚	-11678
更糟糕	-11679
最后一	-11680
最坏的	-11681
最快的	-11682
有一大	-11683
有一套	-11684
有两个	-11685
有危险	-11686
有可能	-11687
有多大	-11688
有多长	-11689
有多高	-11690
有她的	-11691
有好处	-11692
有孩子	-11693
有我的	-11694
有时候	-11695
有点醉	-11696
有秘密	-11697
有能力	-11698
有计划	-11699
有那么	-11700
有麻烦	-11701
朋友的	-11702
本地人	-11703
杀人的	-11704
杂志吗	-11705
村庄里	-11706
条裤子	-11707
来之前	-11708
来决定	-11709
来帮助	-11710
来找我	-11711
来点儿	-11712
来见我	-11713
来这儿	-11714
架子上	-11715
柳橙吗	-11716
树林里	-11717
桶子里	-11718
棵大树	-11719
椅子上	-11720
次机会	-11721
欺骗了	-11722
正在看	-11723
殖民地	-11724
母亲的	-11725
每首歌	-11726
比他们	-11727
比你的	-11728
比往常	-11729
比班上	-11730
比起来	-11731
比那个	-11732
毕业的	-11733
汤姆长	-11734
沙发上	-11735
沙拉吗	-11736
没上学	-11737
没人能	-11738
没办法	-11739
没时间	-11740
没有水	-11741
没有钱	-11742
没看到	-11743
注意到	-11744
注意点	-11745
洁窗户	-11746
洛杉矶	-11747
活得更	-11748
消失了	-11749
清白的	-11750
温暖的	-11751
游乐器	-11752
游泳了	-11753
游泳的	-11754
湖最深	-11755
漂亮了	-11756
潜水吗	-11757
火车了	-11758
点事做	-11759
点来接	-11760
点起床	-11761
烧毁了	-11762
爱玛丽	-11763
爱着她	-11764
父亲的	-11765
牛奶都	-11766
狗进来	-11767
独特的	-11768
独自做	-11769
玩电视	-11770
现在有	-11771
现在的	-11772
瑞典语	-11773
甚么事	-11774
生了个	-11775
生气了	-11776
用法语	-11777
用语言	-11778
电影全	-11779
电影吗	-11780
电视吗	-11781
电话亭	-11782
电话吗	-11783
男孩的	-11784
留下了	-11785
留下来	-11786
留给他	-11787
病倒了	-11788
白费了	-11789
的一些	-11790
的一餐	-11791
的两倍	-11792
的主人	-11793
的书吗	-11794
的事儿	-11795
的人们	-11796
的今天	-11797
的位子	-11798
的历史	-11799
的厨艺	-11800
的地图	-11801
的基础	-11802
的天堂	-11803
的小路	-11804
的巴士	-11805
的年龄	-11806
的开头	-11807
的成功	-11808
的故事	-11809
的方法	-11810
的旅馆	-11811
的有效	-11812
的法语	-11813
的生日	-11814
的电话	-11815
的知识	-11816
的石油	-11817
的第一	-11818
的老板	-11819
的自己	-11820
的讨论	-11821
的讯息	-11822
的还是	-11823
的那么	-11824
的音乐	-11825
的首都	-11826
相信他	-11827
相信我	-11828
相信那	-11829
看了看	-11830
看着鱼	-11831
看著你	-11832
真喜欢	-11833
真实的	-11834
真走运	-11835
眼睛了	-11836
睡在它	-11837
睡点觉	-11838
知道了	-11839
知道我	-11840
知道那	-11841
碰到他	-11842
离开的	-11843
程序员	-11844
空间了	-11845
空间给	-11846
穿一件	-11847
窗户上	-11848
笔记本	-11849
第三节	-11850
箱子太	-11851
糟糕了	-11852
练习拉	-11853
结了婚	-11854
结婚的	-11855
结果不	-11856
给你看	-11857
给我了	-11858
给老师	-11859
给魔鬼	-11860
继续犯	-11861
维生素	-11862
缺钱了	-11863
老人在	-11864
老教堂	-11865
考试时	-11866
者是谁	-11867
而无法	-11868
而自豪	-11869
而闻名	-11870
耽搁了	-11871
联合国	-11872
肯定会	-11873
胜于无	-11874
能了解	-11875
能做吗	-11876
能帮你	-11877
能帮我	-11878
能教我	-11879
脚漫步	-11880
自杀了	-11881
自身的	-11882
花时间	-11883
英国人	-11884
英格兰	-11885
英语吗	-11886
英语的	-11887
苹果吗	-11888
苹果树	-11889
茶胜过	-11890
著名的	-11891
董事会	-11892
蓝色的	-11893
藏甚么	-11894
街对面	-11895
街道上	-11896
表上是	-11897
衬衫洗	-11898
被叫做	-11899
被嘲笑	-11900
被弄湿	-11901
被当作	-11902
被洪水	-11903
被淋得	-11904
袭击了	-11905
装满水	-11906
要做的	-11907
要安静	-11908
要求的	-11909
要结婚	-11910
见到您	-11911
见过最	-11912
解决了	-11913
解除了	-11914
触犯了	-11915
计算机	-11916
认为那	-11917
讨论它	-11918
让她很	-11919
让我再	-11920
让自己	-11921
记得他	-11922
讲法语	-11923
讲清楚	-11924
许多次	-11925
访问过	-11926
试试看	-11927
话可说	-11928
详细地	-11929
诱惑了	-11930
说他很	-11931
说再见	-11932
说出来	-11933
说实话	-11934
说得好	-11935
说服他	-11936
说甚么	-11937
说的做	-11938
读中文	-11939
读起来	-11940
谢谢你	-11941
赤裸着	-11942
走进了	-11943
跟以前	-11944
跟我同	-11945
跟昨天	-11946
跟着你	-11947
跟老板	-11948
跟著他	-11949
跳入了	-11950
跳多高	-11951
跳舞吗	-11952
车撞了	-11953
转角处	-11954
轻井泽	-11955
载我去	-11956
辆卡车	-11957
辆新车	-11958
辞职吗	-11959
过三次	-11960
过世了	-11961
过东京	-11962
过多少	-11963
过火车	-11964
还不会	-11965
还不够	-11966
还是个	-11967
还没到	-11968
还活著	-11969
还给我	-11970
这个药	-11971
这个镇	-11972
这些书	-11973
这工作	-11974
这座桥	-11975
这张票	-11976
这条河	-11977
这笔钱	-11978
这辆车	-11979
这里有	-11980
进入了	-11981
进来了	-11982
进步了	-11983
进洞里	-11984
远一点	-11985
连串的	-11986
迷了路	-11987
送了我	-11988
选她为	-11989
遇到过	-11990
遇见她	-11991
那个人	-11992
那个吗	-11993
那些书	-11994
那只狗	-11995
那应该	-11996
那座山	-11997
那时起	-11998
那是狗	-11999
都不怕	-12000
都不是	-12001
都湿了	-12002
里的水	-12003
鉴赏力	-12004
钢琴家	-12005
钥匙吗	-12006
银行了	-12007
长不大	-12008
长久的	-12009
门打开	-12010
问了我	-12011
间房子	-12012
阳光下	-12013
阻止你	-12014
阻止我	-12015
陌生人	-12016
集邮册	-12017
雨停了	-12018
需要做	-12019
非常快	-12020
非常胖	-12021
非常近	-12022
面临著	-12023
音讯吗	-12024
飞行员	-12025
食物了	-12026
馅饼吗	-12027
马铃薯	-12028
驾驶证	-12029
骑车去	-12030
高兴吗	-12031
高得多	-12032
魁祸首	-12033
麻烦了	-12034
黎明时	-12035
:00.	-12036
afer	-12037
aire	-12038
ales	-12039
alty	-12040
amed	-12041
amin	-12042
anan	-12043
angh	-12044
anto	-12045
arre	-12046
asol	-12047
auce	-12048
aven	-12049
bell	-12050
bery	-12051
bies	-12052
cast	-12053
cise	-12054
cope	-12055
date	-12056
ders	-12057
ench	-12058
engl	-12059
eral	-12060
esus	-12061
fall	-12062
form	-12063
gery	-12064
gypt	-12065
hest	-12066
hima	-12067
ians	-12068
iant	-12069
ieth	-12070
igin	-12071
illy	-12072
imet	-12073
ique	-12074
iros	-12075
ites	-12076
itiz	-12077
lebr	-12078
leed	-12079
lict	-12080
lled	-12081
mare	-12082
mark	-12083
mend	-12084
mers	-12085
migr	-12086
mist	-12087
mocr	-12088
mped	-12089
ophy	-12090
orms	-12091
otes	-12092
ouch	-12093
over	-12094
peci	-12095
rang	-12096
rary	-12097
rase	-12098
reek	-12099
rike	-12100
rops	-12101
rots	-12102
rown	-12103
rupt	-12104
sect	-12105
ship	-12106
stin	-12107
tion	-12108
uced	-12109
uchi	-12110
uded	-12111
uest	-12112
ulse	-12113
ults	-12114
urbs	-12115
vant	-12116
view	-12117
ware	-12118
wood	-12119
xico	-12120
ysic	-12121
▁455	-12122
▁500	-12123
▁65.	-12124
▁anc	-12125
▁ash	-12126
▁aug	-12127
▁bal	-12128
▁bee	-12129
▁bow	-12130
▁bud	-12131
▁byg	-12132
▁eld	-12133
▁err	-12134
▁fas	-12135
▁fit	-12136
▁gym	-12137
▁ham	-12138
▁hig	-12139
▁hug	-12140
▁hyp	-12141
▁iss	-12142
▁jar	-12143
▁joy	-12144
▁lay	-12145
▁lit	-12146
▁log	-12147
▁net	-12148
▁non	-12149
▁ord	-12150
▁oys	-12151
▁pig	-12152
▁pup	-12153
▁rev	-12154
▁ric	-12155
▁san	-12156
▁sen	-12157
▁sew	-12158
▁sli	-12159
▁tid	-12160
▁tip	-12161
▁ufo	-12162
▁unf	-12163
▁unl	-12164
▁ven	-12165
▁vit	-12166
▁wig	-12167
▁wit	-12168
▁上周日	-12169
▁上星期	-12170
▁下一个	-12171
▁下个月	-12172
▁不可能	-12173
▁不是吗	-12174
▁不要碰	-12175
▁不要让	-12176
▁不要踩	-12177
▁世界上	-12178
▁今天就	-12179
▁从天色	-12180
▁他一年	-12181
▁他一点	-12182
▁他不信	-12183
▁他不能	-12184
▁他举起	-12185
▁他们不	-12186
▁他们从	-12187
▁他们往	-12188
▁他们说	-12189
▁他保持	-12190
▁他再也	-12191
▁他写了	-12192
▁他勉强	-12193
▁他去世	-12194
▁他去了	-12195
▁他只是	-12196
▁他吉他	-12197
▁他和我	-12198
▁他坐在	-12199
▁他学习	-12200
▁他学了	-12201
▁他带我	-12202
▁他强调	-12203
▁他当时	-12204
▁他必须	-12205
▁他怀疑	-12206
▁他想要	-12207
▁他愿意	-12208
▁他承认	-12209
▁他故意	-12210
▁他整天	-12211
▁他旅行	-12212
▁他昨晚	-12213
▁他是这	-12214
▁他晚上	-12215
▁他来自	-12216
▁他死于	-12217
▁他每年	-12218
▁他爱她	-12219
▁他独自	-12220
▁他真的	-12221
▁他砸坏	-12222
▁他突然	-12223
▁他精通	-12224
▁他继续	-12225
▁他缺乏	-12226
▁他聪明	-12227
▁他能读	-12228
▁他花了	-12229
▁他表现	-12230
▁他被迫	-12231
▁他认识	-12232
▁他试图	-12233
▁他跟我	-12234
▁他还没	-12235
▁他退休	-12236
▁他通过	-12237
▁你一定	-12238
▁你一点	-12239
▁你一直	-12240
▁你不懂	-12241
▁你了解	-12242
▁你们呢	-12243
▁你们在	-12244
▁你们有	-12245
▁你们要	-12246
▁你会讲	-12247
▁你似乎	-12248
▁你准备	-12249
▁你到底	-12250
▁你叔叔	-12251
▁你吃完	-12252
▁你哥哥	-12253
▁你太太	-12254
▁你完全	-12255
▁你对我	-12256
▁你并不	-12257
▁你总是	-12258
▁你想去	-12259
▁你找到	-12260
▁你挡住	-12261
▁你整个	-12262
▁你无权	-12263
▁你明早	-12264
▁你明白	-12265
▁你有带	-12266
▁你有比	-12267
▁你本来	-12268
▁你检查	-12269
▁你母亲	-12270
▁你洗过	-12271
▁你的姓	-12272
▁你看到	-12273
▁你看来	-12274
▁你真坏	-12275
▁你经常	-12276
▁你给你	-12277
▁你能来	-12278
▁你能用	-12279
▁你要用	-12280
▁你计划	-12281
▁你记得	-12282
▁你说你	-12283
▁你读过	-12284
▁你还在	-12285
▁你还想	-12286
▁你通常	-12287
▁入场费	-12288
▁再给我	-12289
▁几年前	-12290
▁别开玩	-12291
▁别让我	-12292
▁别那么	-12293
▁到时候	-12294
▁到村庄	-12295
▁前几天	-12296
▁博物馆	-12297
▁卫生纸	-12298
▁即使是	-12299
▁去年她	-12300
▁去纽约	-12301
▁只有一	-12302
▁名古屋	-12303
▁向左转	-12304
▁告诉他	-12305
▁哪里痛	-12306
▁在下雨	-12307
▁在他们	-12308
▁在假期	-12309
▁在冬天	-12310
▁在哪儿	-12311
▁在巴黎	-12312
▁在我们	-12313
▁在我的	-12314
▁在这种	-12315
▁在这里	-12316
▁在那里	-12317
▁在门口	-12318
▁多少钱	-12319
▁大部份	-12320
▁天空很	-12321
▁太棒了	-12322
▁她一定	-12323
▁她上楼	-12324
▁她不在	-12325
▁她也许	-12326
▁她今天	-12327
▁她今年	-12328
▁她今晚	-12329
▁她似乎	-12330
▁她假装	-12331
▁她儿子	-12332
▁她去了	-12333
▁她坚持	-12334
▁她嫁给	-12335
▁她开始	-12336
▁她忙于	-12337
▁她急忙	-12338
▁她抱怨	-12339
▁她指责	-12340
▁她早上	-12341
▁她明年	-12342
▁她正在	-12343
▁她特别	-12344
▁她真的	-12345
▁她等了	-12346
▁她终于	-12347
▁她经常	-12348
▁她给我	-12349
▁她要求	-12350
▁她警告	-12351
▁她跟他	-12352
▁她跟你	-12353
▁她违背	-12354
▁她通常	-12355
▁她面带	-12356
▁委员会	-12357
▁它可以	-12358
▁实话说	-12359
▁对一个	-12360
▁尽可能	-12361
▁屋里有	-12362
▁巴士会	-12363
▁市中心	-12364
▁帮助你	-12365
▁年轻人	-12366
▁弹钢琴	-12367
▁当我还	-12368
▁很抱歉	-12369
▁怎么了	-12370
▁怎么办	-12371
▁您可以	-12372
▁您应该	-12373
▁您必须	-12374
▁您愿意	-12375
▁您昨天	-12376
▁意大利	-12377
▁我一天	-12378
▁我一生	-12379
▁我下周	-12380
▁我不在	-12381
▁我不常	-12382
▁我不敢	-12383
▁我不该	-12384
▁我仅仅	-12385
▁我们也	-12386
▁我们到	-12387
▁我们尽	-12388
▁我们是	-12389
▁我们谁	-12390
▁我会来	-12391
▁我佩服	-12392
▁我信任	-12393
▁我八点	-12394
▁我写了	-12395
▁我准备	-12396
▁我匆忙	-12397
▁我反对	-12398
▁我发觉	-12399
▁我发誓	-12400
▁我受够	-12401
▁我只能	-12402
▁我只要	-12403
▁我叫她	-12404
▁我听了	-12405
▁我告诉	-12406
▁我和我	-12407
▁我咳嗽	-12408
▁我喉咙	-12409
▁我回家	-12410
▁我在家	-12411
▁我天黑	-12412
▁我太太	-12413
▁我头痛	-12414
▁我好像	-12415
▁我如此	-12416
▁我对此	-12417
▁我将在	-12418
▁我将要	-12419
▁我就要	-12420
▁我工作	-12421
▁我帮我	-12422
▁我开始	-12423
▁我当然	-12424
▁我很忙	-12425
▁我得找	-12426
▁我怎样	-12427
▁我怕她	-12428
▁我怕死	-12429
▁我想吃	-12430
▁我想用	-12431
▁我想看	-12432
▁我感到	-12433
▁我把他	-12434
▁我把它	-12435
▁我指望	-12436
▁我收到	-12437
▁我收集	-12438
▁我整天	-12439
▁我早上	-12440
▁我朋友	-12441
▁我期望	-12442
▁我欣赏	-12443
▁我每周	-12444
▁我没法	-12445
▁我渴了	-12446
▁我烤了	-12447
▁我爱她	-12448
▁我的脚	-12449
▁我直接	-12450
▁我看你	-12451
▁我看到	-12452
▁我祖母	-12453
▁我突然	-12454
▁我立刻	-12455
▁我站在	-12456
▁我给我	-12457
▁我羡慕	-12458
▁我胃痛	-12459
▁我自己	-12460
▁我被这	-12461
▁我要他	-12462
▁我要是	-12463
▁我要求	-12464
▁我让我	-12465
▁我设法	-12466
▁我走路	-12467
▁我跟我	-12468
▁我过了	-12469
▁我邀请	-12470
▁我那时	-12471
▁我重视	-12472
▁我问了	-12473
▁我马上	-12474
▁把椅子	-12475
▁据说她	-12476
▁收音机	-12477
▁放学后	-12478
▁放风筝	-12479
▁明天我	-12480
▁明天是	-12481
▁明天有	-12482
▁昨天的	-12483
▁晚上好	-12484
▁暴风雨	-12485
▁有些事	-12486
▁有什么	-12487
▁服务生	-12488
▁桌上的	-12489
▁欢迎来	-12490
▁比较你	-12491
▁汤姆写	-12492
▁汤姆又	-12493
▁汤姆将	-12494
▁汤姆就	-12495
▁汤姆求	-12496
▁汤姆看	-12497
▁汤姆给	-12498
▁没关系	-12499
▁没问题	-12500
▁波士顿	-12501
▁深呼吸	-12502
▁玛丽把	-12503
▁现在太	-12504
▁现在是	-12505
▁现实点	-12506
▁生活费	-12507
▁用手指	-12508
▁用筷子	-12509
▁目前我	-12510
▁看来他	-12511
▁看著他	-12512
▁真高兴	-12513
▁继续看	-12514
▁美国的	-12515
▁胡萝卜	-12516
▁要不要	-12517
▁警察会	-12518
▁警察抓	-12519
▁让他们	-12520
▁许多人	-12521
▁请保守	-12522
▁请安静	-12523
▁请尽快	-12524
▁请随手	-12525
▁谁会想	-12526
▁躺下来	-12527
▁辣点儿	-12528
▁还有多	-12529
▁还有谁	-12530
▁这不好	-12531
▁这个岛	-12532
▁这个班	-12533
▁这些书	-12534
▁这些是	-12535
▁这些鞋	-12536
▁这件事	-12537
▁这儿有	-12538
▁这咖啡	-12539
▁这家店	-12540
▁这幅画	-12541
▁这很难	-12542
▁这房子	-12543
▁这房间	-12544
▁这是去	-12545
▁这是本	-12546
▁这朵花	-12547
▁这条街	-12548
▁这真的	-12549
▁这衬衫	-12550
▁这要花	-12551
▁进教室	-12552
▁那不太	-12553
▁那个穿	-12554
▁那家伙	-12555
▁那是个	-12556
▁那辆车	-12557
▁麻烦您	-12558
一下医生	-12559
一个会议	-12560
一些事情	-12561
一些问题	-12562
一位朋友	-12563
一只猫追	-12564
一场车祸	-12565
一天之内	-12566
一小时前	-12567
一支铅笔	-12568
一本字典	-12569
一段时间	-12570
一片漆黑	-12571
一直让手	-12572
一起去吗	-12573
一起唱歌	-12574
一起工作	-12575
一起旅行	-12576
三个小时	-12577
三种语言	-12578
上有个洞	-12579
上有困难	-12580
上次见面	-12581
下个星期	-12582
下列句子	-12583
下很多雨	-12584
不会游泳	-12585
不到幸福	-12586
不可能的	-12587
不喜欢它	-12588
不太清楚	-12589
不太高兴	-12590
不是他的	-12591
不是汤姆	-12592
不是那么	-12593
不流行了	-12594
不知道他	-12595
不能跟你	-12596
不舒服吗	-12597
不要回来	-12598
不说英语	-12599
东京郊区	-12600
丢了他的	-12601
两个人都	-12602
两杯咖啡	-12603
个问题吗	-12604
中受伤了	-12605
中恢复了	-12606
为我感到	-12607
为我解释	-12608
主要问题	-12609
举起你的	-12610
也不喜欢	-12611
也做不了	-12612
买果汁吗	-12613
了一整夜	-12614
了什么病	-12615
了他不要	-12616
了很多的	-12617
了我一眼	-12618
了我的路	-12619
了许多新	-12620
了重感冒	-12621
事情要做	-12622
互相帮助	-12623
互相帮忙	-12624
五十美分	-12625
交通事故	-12626
交通堵塞	-12627
人以英语	-12628
什么事了	-12629
什么地方	-12630
什么都别	-12631
从哪里来	-12632
他们不要	-12633
他们会赢	-12634
他们是谁	-12635
他会准时	-12636
他会等我	-12637
他作程式	-12638
他做的事	-12639
他去散步	-12640
他很快乐	-12641
他的健康	-12642
他的女儿	-12643
他的妻子	-12644
他的建议	-12645
他的想法	-12646
他的意见	-12647
他的房间	-12648
他的提议	-12649
他的新车	-12650
他的母亲	-12651
他的计划	-12652
以二得三	-12653
任何一个	-12654
任何帮助	-12655
任何朋友	-12656
任何药物	-12657
休看马口	-12658
会告诉你	-12659
会怎么样	-12660
会打网球	-12661
会来看你	-12662
会说俄语	-12663
但是没有	-12664
住在东京	-12665
住在国外	-12666
住在筱山	-12667
住在纽约	-12668
住在那里	-12669
住在隔壁	-12670
余的盐吗	-12671
作业了吗	-12672
你喜欢的	-12673
你在一起	-12674
你怎么想	-12675
你所说的	-12676
你是我的	-12677
你有纸吗	-12678
你的勇气	-12679
你的工作	-12680
你的朋友	-12681
你的未来	-12682
你的母亲	-12683
你的父母	-12684
你的眼睛	-12685
你的礼物	-12686
你的责任	-12687
你的车吗	-12688
你的问题	-12689
你能做的	-12690
使用这台	-12691
保护自己	-12692
保持干净	-12693
信任汤姆	-12694
信任的人	-12695
信守承诺	-12696
值得一游	-12697
值得一读	-12698
值得再看	-12699
做了甚么	-12700
做了许多	-12701
做得更好	-12702
做的只是	-12703
做的工作	-12704
停下来抽	-12705
停了下来	-12706
停在这里	-12707
停在那里	-12708
像你那样	-12709
允许汤姆	-12710
兄长那样	-12711
充分利用	-12712
充满活力	-12713
入学考试	-12714
公司工作	-12715
公车站牌	-12716
六点钟了	-12717
关上了门	-12718
关系很好	-12719
再做一次	-12720
再告诉我	-12721
再来一块	-12722
再试一次	-12723
写信给他	-12724
决定我们	-12725
准时上班	-12726
出去了吗	-12727
分为两个	-12728
分成三份	-12729
到了车站	-12730
到我们家	-12731
到池塘里	-12732
到达之前	-12733
到达那里	-12734
刷两次牙	-12735
办了一个	-12736
功课了吗	-12737
加入你们	-12738
加拿大人	-12739
努力学习	-12740
午餐时间	-12741
半个蛋糕	-12742
去了医院	-12743
去了这家	-12744
去做那事	-12745
去北海道	-12746
去工作了	-12747
去教堂吗	-12748
去电影院	-12749
去看汤姆	-12750
去看玛丽	-12751
去过纽约	-12752
参加考试	-12753
及时赶到	-12754
发现任何	-12755
发现真相	-12756
发生火灾	-12757
古典音乐	-12758
只是一个	-12759
叫我起床	-12760
叫醒汤姆	-12761
可以到达	-12762
可以帮我	-12763
可以来看	-12764
可的微笑	-12765
可能不是	-12766
吃点东西	-12767
吃这么多	-12768
吃饭了吗	-12769
吃饭难吗	-12770
后退一步	-12771
否认偷了	-12772
听到那个	-12773
听我说吗	-12774
呆在家里	-12775
告诉了他	-12776
告诉你了	-12777
告诉我路	-12778
哥哥很熟	-12779
哪个季节	-12780
喜欢动物	-12781
喜欢汤姆	-12782
喝了很多	-12783
嗜好之一	-12784
四处看看	-12785
回答所有	-12786
因为下雨	-12787
因为风暴	-12788
国际语言	-12789
在北海道	-12790
在医院里	-12791
在十一点	-12792
在房间里	-12793
在日本被	-12794
在星期天	-12795
在月球上	-12796
在沙发上	-12797
在沙滩上	-12798
在派对上	-12799
在浴缸里	-12800
在等汤姆	-12801
在芝加哥	-12802
在花园里	-12803
在这儿吗	-12804
在这本书	-12805
在这次的	-12806
坐在那里	-12807
外国读书	-12808
大声说话	-12809
大学毕业	-12810
太多时间	-12811
太难读了	-12812
她昨晚来	-12813
她的旁边	-12814
她的隐私	-12815
好久不见	-12816
好的朋友	-12817
如愿以偿	-12818
如此生气	-12819
学的东西	-12820
学的中文	-12821
学英语的	-12822
孩子们去	-12823
完全错误	-12824
完成报告	-12825
完成这个	-12826
家庭作业	-12827
对他期望	-12828
对你说谎	-12829
将在明天	-12830
尊敬老人	-12831
小的时候	-12832
就待多久	-12833
就离开了	-12834
就能看出	-12835
尽可能地	-12836
属于丹麦	-12837
已经到了	-12838
帐单给我	-12839
并不容易	-12840
并不清楚	-12841
并且再也	-12842
建了一座	-12843
开车回家	-12844
开车送我	-12845
弥补损失	-12846
彼此交谈	-12847
往常一样	-12848
待在床上	-12849
很久以前	-12850
很多年了	-12851
很多朋友	-12852
很早起床	-12853
很晚回家	-12854
很讨厌你	-12855
得到了一	-12856
得到答案	-12857
得这么快	-12858
微乎其微	-12859
必须走了	-12860
忘了锁门	-12861
快用完了	-12862
怎么开车	-12863
您的光临	-12864
您的护照	-12865
惊讶的是	-12866
想出去吃	-12867
想吃什么	-12868
想要一条	-12869
想要的是	-12870
想说什么	-12871
想过当个	-12872
意义重大	-12873
感兴趣吗	-12874
成为教师	-12875
成绩很好	-12876
我不反对	-12877
我不应该	-12878
我也能做	-12879
我们不能	-12880
我们的狗	-12881
我们该走	-12882
我们赢了	-12883
我做什么	-12884
我吃饱了	-12885
我家附近	-12886
我就不去	-12887
我想要的	-12888
我是对的	-12889
我没办法	-12890
我的体重	-12891
我的功课	-12892
我的孩子	-12893
我的对面	-12894
我的想法	-12895
我的成功	-12896
我的房子	-12897
我的本意	-12898
我的父亲	-12899
我的计划	-12900
我的诺言	-12901
我的车停	-12902
我的问题	-12903
我看到了	-12904
所有情况	-12905
打开这个	-12906
打扫房子	-12907
打电话来	-12908
找到汤姆	-12909
把它完成	-12910
把这本书	-12911
担心您的	-12912
持续三天	-12913
按下按钮	-12914
换了我的	-12915
接受我的	-12916
控制住了	-12917
握着一把	-12918
支铅笔吗	-12919
放在桌子	-12920
放弃了他	-12921
数学天才	-12922
整夜工作	-12923
新鲜空气	-12924
无法形容	-12925
日本历史	-12926
早上工作	-12927
早来这里	-12928
早点回家	-12929
早餐之前	-12930
明天会来	-12931
明早八点	-12932
明白那个	-12933
是个傻子	-12934
是他画的	-12935
是你们的	-12936
是唯一会	-12937
是困难的	-12938
是成功的	-12939
是我叔叔	-12940
是我妈妈	-12941
是无礼的	-12942
是木制的	-12943
是英国的	-12944
是谁做的	-12945
是违法的	-12946
是高兴呢	-12947
晚上锁门	-12948
暖气系统	-12949
暗恋着她	-12950
更多时间	-12951
最后一个	-12952
最好不要	-12953
最高的山	-12954
有一些书	-12955
有一本书	-12956
有一点钱	-12957
有个男人	-12958
有十年了	-12959
有很多人	-12960
有很多树	-12961
有很大的	-12962
有点发烧	-12963
有益健康	-12964
有趣的事	-12965
有鬼魂吗	-12966
朋友是谁	-12967
未来可能	-12968
杀了汤姆	-12969
来到日本	-12970
来看我们	-12971
来自哪里	-12972
来自国外	-12973
某个地方	-12974
桌上有张	-12975
棒球选手	-12976
模型飞机	-12977
正在写信	-12978
正在回来	-12979
正确的事	-12980
每天至少	-12981
比你想象	-12982
汤姆身上	-12983
没什么好	-12984
没有人来	-12985
没有听见	-12986
没有影响	-12987
没有机会	-12988
没有答案	-12989
没来学校	-12990
河的对面	-12991
法国三次	-12992
法国认识	-12993
泪流满面	-12994
洗他的车	-12995
洗手间吗	-12996
派对中我	-12997
深的湖泊	-12998
火车站吗	-12999
灰尘过敏	-13000
点了中餐	-13001
热起来了	-13002
照顾自己	-13003
父母教育	-13004
牢里待了	-13005
特别漂亮	-13006
犯了个错	-13007
独自旅行	-13008
玛丽这么	-13009
玛丽那里	-13010
生了一个	-13011
生气了吗	-13012
用的语言	-13013
电话响了	-13014
电话坏了	-13015
画了一个	-13016
画这幅画	-13017
登富士山	-13018
白葡萄酒	-13019
百货公司	-13020
的人口比	-13021
的人来说	-13022
的嗜好是	-13023
的意思吗	-13024
的时候受	-13025
的是汤姆	-13026
的最好的	-13027
的样子了	-13028
的科学家	-13029
相信你在	-13030
相信那个	-13031
相处融洽	-13032
看上去老	-13033
看了她的	-13034
看到了一	-13035
看点东西	-13036
眼睛需要	-13037
睡到中午	-13038
知道不要	-13039
知道你会	-13040
知道得多	-13041
知道汤姆	-13042
知道的事	-13043
短的时间	-13044
禁止吸烟	-13045
离开这里	-13046
种了玫瑰	-13047
穿牛仔裤	-13048
穿的衣服	-13049
立刻被请	-13050
站在这里	-13051
第一印象	-13052
等下一班	-13053
等几分钟	-13054
等到四点	-13055
紧急情况	-13056
紧紧地抱	-13057
练习英语	-13058
给玛丽买	-13059
继续下去	-13060
美元买的	-13061
美国旅行	-13062
而是因为	-13063
自言自语	-13064
舒服一点	-13065
花了我一	-13066
花园里的	-13067
英国订了	-13068
英语老师	-13069
英语能力	-13070
苹果很大	-13071
蚊子叮了	-13072
行不通的	-13073
行李丢了	-13074
被人忽视	-13075
被暴风雨	-13076
要去度假	-13077
要去美国	-13078
要多少钱	-13079
要打领带	-13080
要看天气	-13081
见你姐姐	-13082
见汤姆的	-13083
解决方法	-13084
解决问题	-13085
认为我傻	-13086
认真的吗	-13087
认识我吗	-13088
认识我的	-13089
让任何人	-13090
让我看看	-13091
许多国家	-13092
访问韩国	-13093
试试这个	-13094
该干什么	-13095
该懂事了	-13096
说些什么	-13097
说慢一点	-13098
说的很好	-13099
负担不起	-13100
走了我的	-13101
起得很早	-13102
超级市场	-13103
跟他说话	-13104
跟你一起	-13105
跟谁说话	-13106
转动钥匙	-13107
辆出租车	-13108
辣的食物	-13109
过了人群	-13110
还在这里	-13111
这个地区	-13112
这个地址	-13113
这个年纪	-13114
这个房间	-13115
这个时候	-13116
这个时钟	-13117
这个派对	-13118
这个男孩	-13119
这个词的	-13120
这个部门	-13121
这么多人	-13122
这份报告	-13123
这可能会	-13124
这张表格	-13125
这是一个	-13126
这样做的	-13127
这种痛苦	-13128
这间房间	-13129
这项工作	-13130
送到医院	-13131
适应黑暗	-13132
遭到雷击	-13133
遵守法律	-13134
遵守规则	-13135
遵守诺言	-13136
邀请我去	-13137
那个女孩	-13138
那个问题	-13139
那么做了	-13140
那么年轻	-13141
那噪音了	-13142
那是真的	-13143
那里待了	-13144
都在看这	-13145
都失败了	-13146
都是我的	-13147
都结婚了	-13148
都长期备	-13149
里有很多	-13150
银行里有	-13151
长的时间	-13152
阿拉伯语	-13153
随心所欲	-13154
隐形眼镜	-13155
非常开心	-13156
非常炎热	-13157
靠左行驶	-13158
音乐会的	-13159
马上行动	-13160
骑摩托车	-13161
高中生吗	-13162
鸟类的书	-13163
aches	-13164
acter	-13165
ading	-13166
adise	-13167
agree	-13168
aikal	-13169
ament	-13170
ammal	-13171
ammar	-13172
anies	-13173
ankly	-13174
apore	-13175
arian	-13176
aside	-13177
asses	-13178
astes	-13179
astin	-13180
atory	-13181
azing	-13182
chief	-13183
chite	-13184
eezed	-13185
eless	-13186
endar	-13187
eness	-13188
entle	-13189
ester	-13190
heart	-13191
herry	-13192
house	-13193
ially	-13194
ibuya	-13195
iches	-13196
icide	-13197
icket	-13198
idate	-13199
idays	-13200
ilton	-13201
iplom	-13202
iring	-13203
issue	-13204
iting	-13205
itzer	-13206
known	-13207
metic	-13208
olite	-13209
ooked	-13210
orary	-13211
oring	-13212
ormal	-13213
overs	-13214
pects	-13215
point	-13216
proof	-13217
ptune	-13218
quent	-13219
store	-13220
tered	-13221
terly	-13222
ufact	-13223
upied	-13224
velop	-13225
works	-13226
yment	-13227
▁7:00	-13228
▁8:30	-13229
▁affe	-13230
▁belt	-13231
▁body	-13232
▁braz	-13233
▁bush	-13234
▁cand	-13235
▁cave	-13236
▁chat	-13237
▁copy	-13238
▁coun	-13239
▁cups	-13240
▁cute	-13241
▁damp	-13242
▁defe	-13243
▁dess	-13244
▁dial	-13245
▁diet	-13246
▁dirt	-13247
▁dise	-13248
▁dogh	-13249
▁drow	-13250
▁drug	-13251
▁evil	-13252
▁file	-13253
▁fits	-13254
▁flat	-13255
▁fork	-13256
▁gate	-13257
▁glit	-13258
▁glue	-13259
▁gray	-13260
▁grip	-13261
▁hare	-13262
▁inch	-13263
▁intr	-13264
▁kick	-13265
▁lazy	-13266
▁leak	-13267
▁lens	-13268
▁lion	-13269
▁liqu	-13270
▁loan	-13271
▁mahj	-13272
▁mand	-13273
▁mars	-13274
▁mend	-13275
▁merc	-13276
▁meth	-13277
▁mild	-13278
▁mood	-13279
▁nail	-13280
▁numb	-13281
▁octo	-13282
▁oven	-13283
▁page	-13284
▁poem	-13285
▁prin	-13286
▁pure	-13287
▁rose	-13288
▁rung	-13289
▁skip	-13290
▁slee	-13291
▁soap	-13292
▁stab	-13293
▁stew	-13294
▁symp	-13295
▁tent	-13296
▁tomb	-13297
▁torn	-13298
▁trap	-13299
▁tune	-13300
▁twin	-13301
▁ueno	-13302
▁ugly	-13303
▁unne	-13304
▁unus	-13305
▁vain	-13306
▁volc	-13307
▁ways	-13308
▁weak	-13309
▁west	-13310
▁wide	-13311
▁wise	-13312
▁woke	-13313
▁wrap	-13314
▁zeal	-13315
▁一个美丽	-13316
▁上床睡觉	-13317
▁不要害怕	-13318
▁不要插手	-13319
▁不要超速	-13320
▁为什么不	-13321
▁么女长得	-13322
▁人不知道	-13323
▁人们需要	-13324
▁今天是我	-13325
▁今天晚上	-13326
▁今天没有	-13327
▁他不可能	-13328
▁他不同意	-13329
▁他从中国	-13330
▁他们一定	-13331
▁他们住在	-13332
▁他们全都	-13333
▁他们没有	-13334
▁他们相信	-13335
▁他们考试	-13336
▁他们要他	-13337
▁他们说他	-13338
▁他们非常	-13339
▁他可能会	-13340
▁他告诉我	-13341
▁他喝酒醉	-13342
▁他在事故	-13343
▁他在哪里	-13344
▁他害怕蛇	-13345
▁他就住在	-13346
▁他很擅长	-13347
▁他是一位	-13348
▁他有几十	-13349
▁他有可能	-13350
▁他有点像	-13351
▁他有能力	-13352
▁他本应该	-13353
▁他每天都	-13354
▁他比以前	-13355
▁他比我高	-13356
▁他活到了	-13357
▁他的妻子	-13358
▁他的父亲	-13359
▁他的行为	-13360
▁他的说明	-13361
▁他穿上了	-13362
▁他给了她	-13363
▁他要求我	-13364
▁他访问过	-13365
▁他详细地	-13366
▁他这个人	-13367
▁他迟早会	-13368
▁你一定要	-13369
▁你不可以	-13370
▁你不必吃	-13371
▁你们两个	-13372
▁你做什么	-13373
▁你可以拿	-13374
▁你和汤姆	-13375
▁你应该去	-13376
▁你应该多	-13377
▁你很勇敢	-13378
▁你很聪明	-13379
▁你必须在	-13380
▁你必须得	-13381
▁你怎么样	-13382
▁你怎么能	-13383
▁你总是在	-13384
▁你想喝点	-13385
▁你想怎么	-13386
▁你想跟我	-13387
▁你故意犯	-13388
▁你是不是	-13389
▁你是怎么	-13390
▁你最好照	-13391
▁你有几个	-13392
▁你每天都	-13393
▁你用我的	-13394
▁你的家人	-13395
▁你的意志	-13396
▁你的时间	-13397
▁你的电脑	-13398
▁你的袋子	-13399
▁你的袜子	-13400
▁你的计划	-13401
▁你相信神	-13402
▁你看上去	-13403
▁你知道他	-13404
▁你知道我	-13405
▁你确定吗	-13406
▁你穿那件	-13407
▁你给我的	-13408
▁你能借我	-13409
▁你脸红了	-13410
▁你认为她	-13411
▁你说的话	-13412
▁你跟你的	-13413
▁你跟汤姆	-13414
▁做你认为	-13415
▁公共汽车	-13416
▁别忘了带	-13417
▁别来烦我	-13418
▁别让汤姆	-13419
▁医生检查	-13420
▁因为下雨	-13421
▁在加拿大	-13422
▁在新加坡	-13423
▁天上没有	-13424
▁她一定是	-13425
▁她告诉我	-13426
▁她和我是	-13427
▁她在那里	-13428
▁她戴上了	-13429
▁她把她的	-13430
▁她是一个	-13431
▁她是我的	-13432
▁她有一个	-13433
▁她每天都	-13434
▁她没有票	-13435
▁她的头发	-13436
▁她给了他	-13437
▁她说的话	-13438
▁它真的很	-13439
▁差不多是	-13440
▁您最喜欢	-13441
▁您能教我	-13442
▁我一直想	-13443
▁我上个月	-13444
▁我不会再	-13445
▁我不应该	-13446
▁我不怕死	-13447
▁我不想吃	-13448
▁我不想听	-13449
▁我不想等	-13450
▁我不想被	-13451
▁我不清楚	-13452
▁我不相信	-13453
▁我不能再	-13454
▁我不能让	-13455
▁我不跟你	-13456
▁我不那么	-13457
▁我今天想	-13458
▁我付了他	-13459
▁我以为他	-13460
▁我们两个	-13461
▁我们今晚	-13462
▁我们去年	-13463
▁我们反对	-13464
▁我们可能	-13465
▁我们国家	-13466
▁我们常常	-13467
▁我们怎么	-13468
▁我们早饭	-13469
▁我们昨天	-13470
▁我们知道	-13471
▁我们老师	-13472
▁我们要等	-13473
▁我们认为	-13474
▁我们试著	-13475
▁我们轮流	-13476
▁我们这里	-13477
▁我们那时	-13478
▁我会为你	-13479
▁我会尽力	-13480
▁我会尽快	-13481
▁我会带你	-13482
▁我会帮你	-13483
▁我会教你	-13484
▁我会游泳	-13485
▁我会立刻	-13486
▁我去公园	-13487
▁我听说你	-13488
▁我喜欢你	-13489
▁我喜欢吃	-13490
▁我喜欢读	-13491
▁我在乡下	-13492
▁我在学校	-13493
▁我在我的	-13494
▁我在海边	-13495
▁我已经做	-13496
▁我希望她	-13497
▁我建议你	-13498
▁我建议她	-13499
▁我很喜欢	-13500
▁我很快乐	-13501
▁我必须在	-13502
▁我想成为	-13503
▁我想现在	-13504
▁我想要你	-13505
▁我想要去	-13506
▁我想请你	-13507
▁我打电话	-13508
▁我找到了	-13509
▁我承认我	-13510
▁我抓到他	-13511
▁我担心他	-13512
▁我拒绝被	-13513
▁我拿到了	-13514
▁我接受了	-13515
▁我明天要	-13516
▁我昨天去	-13517
▁我是一个	-13518
▁我更喜欢	-13519
▁我有两个	-13520
▁我有时间	-13521
▁我有许多	-13522
▁我正忙著	-13523
▁我没去过	-13524
▁我父亲在	-13525
▁我猜他们	-13526
▁我猜想您	-13527
▁我的两个	-13528
▁我的儿子	-13529
▁我的公寓	-13530
▁我的感冒	-13531
▁我的祖母	-13532
▁我的钢笔	-13533
▁我知道谁	-13534
▁我知道这	-13535
▁我确定你	-13536
▁我给了我	-13537
▁我能听见	-13538
▁我能回答	-13539
▁我被要求	-13540
▁我要怎么	-13541
▁我觉得这	-13542
▁我认为它	-13543
▁我认为这	-13544
▁我记得你	-13545
▁我错了吗	-13546
▁戴上你的	-13547
▁把书放回	-13548
▁把你的书	-13549
▁把收音机	-13550
▁把水烧开	-13551
▁日本依赖	-13552
▁日本是个	-13553
▁明天下午	-13554
▁明天他们	-13555
▁明天我会	-13556
▁昨天东京	-13557
▁昨天天气	-13558
▁昨天我帮	-13559
▁月光真美	-13560
▁桌上有个	-13561
▁汤姆不再	-13562
▁汤姆不必	-13563
▁汤姆不敢	-13564
▁汤姆准备	-13565
▁汤姆刚从	-13566
▁汤姆因为	-13567
▁汤姆大概	-13568
▁汤姆对我	-13569
▁汤姆就是	-13570
▁汤姆并不	-13571
▁汤姆必须	-13572
▁汤姆忘了	-13573
▁汤姆怀疑	-13574
▁汤姆总是	-13575
▁汤姆打算	-13576
▁汤姆放下	-13577
▁汤姆昨晚	-13578
▁汤姆最近	-13579
▁汤姆每周	-13580
▁汤姆独自	-13581
▁汤姆答应	-13582
▁汤姆经常	-13583
▁汤姆试着	-13584
▁汤姆通常	-13585
▁没什么好	-13586
▁没有人会	-13587
▁没有你我	-13588
▁没有办法	-13589
▁没有太阳	-13590
▁没有她的	-13591
▁没有学生	-13592
▁没有理由	-13593
▁没有空气	-13594
▁没有错误	-13595
▁沿着这条	-13596
▁物价上涨	-13597
▁猫看着鱼	-13598
▁玛丽说她	-13599
▁电话响了	-13600
▁站在那儿	-13601
▁罗马不是	-13602
▁聊胜于无	-13603
▁莎士比亚	-13604
▁获人赠马	-13605
▁西班牙语	-13606
▁要下雨了	-13607
▁让我给你	-13608
▁许多人在	-13609
▁许多朋友	-13610
▁请你帮我	-13611
▁请原谅我	-13612
▁请把这个	-13613
▁请给我们	-13614
▁请给我靠	-13615
▁请问鸡蛋	-13616
▁谢谢你的	-13617
▁跟她说我	-13618
▁这不重要	-13619
▁这个地方	-13620
▁这个城市	-13621
▁这个年轻	-13622
▁这个房间	-13623
▁这个消息	-13624
▁这个男人	-13625
▁这个老人	-13626
▁这些巴士	-13627
▁这些箱子	-13628
▁这件衬衫	-13629
▁这儿有人	-13630
▁这场比赛	-13631
▁这家旅馆	-13632
▁这小男孩	-13633
▁这就是我	-13634
▁这张照片	-13635
▁这是事实	-13636
▁这本小说	-13637
▁这架飞机	-13638
▁这栋房子	-13639
▁这种错误	-13640
▁这里有个	-13641
▁这里的人	-13642
▁这间房间	-13643
▁那不是猫	-13644
▁那个女孩	-13645
▁那个时候	-13646
▁金子比水	-13647
▁除了汤姆	-13648
▁非常谢谢	-13649
▁面包是用	-13650
一个人出门	-13651
一个伟大的	-13652
一个很好的	-13653
一个摄像机	-13654
一位老太太	-13655
一天建成的	-13656
一起生活了	-13657
上你的鞋子	-13658
上学可能会	-13659
上床睡觉了	-13660
上有几本书	-13661
下个月结婚	-13662
下了很多雪	-13663
下午有空吗	-13664
下国际象棋	-13665
不会说日语	-13666
不会说法语	-13667
不可能做到	-13668
不喜欢足球	-13669
不是个懦夫	-13670
不是美国人	-13671
不知道怎么	-13672
不能工作了	-13673
为甚么汤姆	-13674
之前请敲门	-13675
了一口苹果	-13676
了一块岩石	-13677
了他的钥匙	-13678
了这个工作	-13679
了这个计划	-13680
人在战争中	-13681
什么可隐藏	-13682
什么都没有	-13683
今天的报纸	-13684
他明天会来	-13685
他的家里有	-13686
以前很快乐	-13687
任何东西吗	-13688
任何人都好	-13689
会发生什么	-13690
会发生甚么	-13691
伤心地回答	-13692
但他还不到	-13693
住在这里了	-13694
你去哪儿了	-13695
你喜欢的书	-13696
你在说什么	-13697
你的名字吗	-13698
俄罗斯的贝	-13699
信用卡支付	-13700
健康的身体	-13701
像汤姆那样	-13702
兄弟和两个	-13703
充分的理由	-13704
其他人一样	-13705
再说一次吗	-13706
准时到达了	-13707
出什么事了	-13708
出发延迟了	-13709
出席了会议	-13710
努力地工作	-13711
医生的建议	-13712
去学校学习	-13713
去看了电影	-13714
去过北海道	-13715
去过夏威夷	-13716
去过波士顿	-13717
参加了比赛	-13718
参加会议吗	-13719
发生了地震	-13720
发生了火灾	-13721
取决于天气	-13722
受到学生的	-13723
叫汤姆回来	-13724
可以开车了	-13725
可能会下雪	-13726
吃了三明治	-13727
吃晚饭了吗	-13728
含有大量的	-13729
听我的劝告	-13730
听见有人叫	-13731
告诉我如何	-13732
周一到周五	-13733
和你的家人	-13734
和朋友一起	-13735
和男生约会	-13736
喜欢学校吗	-13737
因酒后驾驶	-13738
在日本多久	-13739
在湖里游泳	-13740
在这个城市	-13741
在这里游泳	-13742
城市的人口	-13743
大部分时间	-13744
太占空间了	-13745
太阳系中最	-13746
失去理智了	-13747
她像她妈妈	-13748
她是正确的	-13749
姓名和地址	-13750
学会游泳的	-13751
学校读书吗	-13752
孩子们做了	-13753
孩子们树立	-13754
孩子喜欢狗	-13755
孩子的父亲	-13756
完成了工作	-13757
对我来说太	-13758
将离开日本	-13759
小心翼翼地	-13760
就没有生命	-13761
岁就结婚了	-13762
带我去公园	-13763
帮忙我母亲	-13764
年轻的时候	-13765
应该做什么	-13766
开始一直在	-13767
开始下雪了	-13768
开车去上班	-13769
当上了部长	-13770
待在波士顿	-13771
很多的水果	-13772
很大的损害	-13773
很大的火灾	-13774
很好的建议	-13775
怎么走好吗	-13776
想成为什么	-13777
想法是对的	-13778
意识到自己	-13779
感到厌烦了	-13780
感到很开心	-13781
感到很惊讶	-13782
成为了一个	-13783
我不喜欢他	-13784
我什么时候	-13785
我们就会去	-13786
我们的学校	-13787
我们的聚会	-13788
我们的计划	-13789
我必须去买	-13790
我的意思吗	-13791
所有有用的	-13792
打来的电话	-13793
打电话给他	-13794
找到问题的	-13795
把她的照片	-13796
把窗户打开	-13797
把门关上吗	-13798
搬到了这里	-13799
搭公车上学	-13800
收到他的信	-13801
收到你的信	-13802
放任何东西	-13803
放在哪里了	-13804
放在桌子上	-13805
放学后会去	-13806
日本料理吗	-13807
早上七点可	-13808
时间的问题	-13809
是一颗行星	-13810
是不容易的	-13811
是个大学生	-13812
是个好主意	-13813
是个孩子时	-13814
是个有名的	-13815
▁	-13816
e	-13817
t	-13818
o	-13819
a	-13820
i	-13821
.	-13822
s	-13823
h	-13824
n	-13825
r	-13826
l	-13827
d	-13828
u	-13829
m	-13830
y	-13831
w	-13832
c	-13833
g	-13834
我	-13835
f	-13836
p	-13837
b	-13838
k	-13839
?	-13840
的	-13841
v	-13842
'	-13843
你	-13844
了	-13845
他	-13846
不	-13847
在	-13848
是	-13849
一	-13850
这	-13851
,	-13852
有	-13853
们	-13854
个	-13855
她	-13856
汤	-13857
姆	-13858
吗	-13859
么	-13860
要	-13861
很	-13862
会	-13863
去	-13864
天	-13865
人	-13866
来	-13867
到	-13868
上	-13869
想	-13870
里	-13871
没	-13872
能	-13873
好	-13874
那	-13875
为	-13876
说	-13877
子	-13878
做	-13879
时	-13880
什	-13881
看	-13882
j	-13883
多	-13884
x	-13885
得	-13886
下	-13887
车	-13888
道	-13889
生	-13890
知	-13891
学	-13892
给	-13893
点	-13894
可	-13895
以	-13896
欢	-13897
喜	-13898
开	-13899
对	-13900
大	-13901
家	-13902
过	-13903
都	-13904
把	-13905
本	-13906
语	-13907
就	-13908
事	-13909
书	-13910
该	-13911
作	-13912
请	-13913
间	-13914
起	-13915
让	-13916
常	-13917
和	-13918
意	-13919
认	-13920
前	-13921
话	-13922
打	-13923
见	-13924
问	-13925
吃	-13926
明	-13927
法	-13928
用	-13929
现	-13930
地	-13931
工	-13932
信	-13933
出	-13934
自	-13935
q	-13936
些	-13937
回	-13938
年	-13939
晚	-13940
英	-13941
告	-13942
真	-13943
今	-13944
丽	-13945
跟	-13946
发	-13947
小	-13948
日	-13949
孩	-13950
玛	-13951
它	-13952
成	-13953
从	-13954
哪	-13955
应	-13956
被	-13957
还	-13958
最	-13959
国	-13960
中	-13961
早	-13962
行	-13963
经	-13964
电	-13965
儿	-13966
房	-13967
!	-13968
候	-13969
太	-13970
比	-13971
听	-13972
必	-13973
样	-13974
相	-13975
亲	-13976
再	-13977
诉	-13978
昨	-13979
帮	-13980
所	-13981
z	-13982
后	-13983
定	-13984
怎	-13985
钱	-13986
只	-13987
高	-13988
走	-13989
正	-13990
何	-13991
公	-13992
0	-13993
父	-13994
住	-13995
感	-13996
每	-13997
心	-13998
果	-13999
觉	-14000
快	-14001
长	-14002
买	-14003
别	-14004
您	-14005
题	-14006
花	-14007
手	-14008
老	-14009
于	-14010
无	-14011
机	-14012
著	-14013
任	-14014
球	-14015
需	-14016
非	-14017
如	-14018
着	-14019
次	-14020
望	-14021
气	-14022
美	-14023
几	-14024
周	-14025
谁	-14026
读	-14027
两	-14028
名	-14029
三	-14030
已	-14031
东	-14032
须	-14033
十	-14034
找	-14035
火	-14036
士	-14037
完	-14038
错	-14039
同	-14040
游	-14041
等	-14042
友	-14043
门	-14044
也	-14045
当	-14046
但	-14047
少	-14048
新	-14049
物	-14050
西	-14051
面	-14052
加	-14053
女	-14054
己	-14055
期	-14056
母	-14057
爱	-14058
离	-14059
写	-14060
力	-14061
雨	-14062
放	-14063
甚	-14064
习	-14065
像	-14066
将	-14067
进	-14068
之	-14069
水	-14070
男	-14071
乐	-14072
方	-14073
校	-14074
解	-14075
希	-14076
待	-14077
理	-14078
试	-14079
朋	-14080
总	-14081
更	-14082
照	-14083
医	-14084
难	-14085
关	-14086
狗	-14087
音	-14088
分	-14089
外	-14090
字	-14091
兴	-14092
决	-14093
受	-14094
全	-14095
忙	-14096
饭	-14097
妈	-14098
教	-14099
月	-14100
议	-14101
动	-14102
场	-14103
师	-14104
带	-14105
结	-14106
午	-14107
始	-14108
星	-14109
餐	-14110
久	-14111
睡	-14112
钟	-14113
通	-14114
玩	-14115
站	-14116
吧	-14117
喝	-14118
张	-14119
许	-14120
步	-14121
活	-14122
种	-14123
路	-14124
死	-14125
重	-14126
直	-14127
记	-14128
婚	-14129
乎	-14130
园	-14131
实	-14132
服	-14133
条	-14134
班	-14135
情	-14136
文	-14137
近	-14138
件	-14139
助	-14140
弟	-14141
爸	-14142
确	-14143
穿	-14144
1	-14145
因	-14146
怕	-14147
计	-14148
头	-14149
泳	-14150
然	-14151
叫	-14152
言	-14153
妹	-14154
拿	-14155
收	-14156
表	-14157
谢	-14158
旅	-14159
笑	-14160
衣	-14161
变	-14162
口	-14163
马	-14164
白	-14165
约	-14166
视	-14167
谈	-14168
跑	-14169
建	-14170
哥	-14171
笔	-14172
五	-14173
尽	-14174
山	-14175
岁	-14176
桌	-14177
趣	-14178
世	-14179
准	-14180
留	-14181
位	-14182
六	-14183
考	-14184
边	-14185
图	-14186
市	-14187
床	-14188
接	-14189
空	-14190
识	-14191
顿	-14192
馆	-14193
"	-14194
功	-14195
色	-14196
身	-14197
处	-14198
失	-14199
安	-14200
影	-14201
愿	-14202
警	-14203
单	-14204
够	-14205
息	-14206
整	-14207
片	-14208
网	-14209
迟	-14210
酒	-14211
京	-14212
叔	-14213
歌	-14214
波	-14215
而	-14216
业	-14217
入	-14218
利	-14219
清	-14220
满	-14221
-	-14222
停	-14223
向	-14224
坐	-14225
故	-14226
洗	-14227
派	-14228
讲	-14229
论	-14230
参	-14231
提	-14232
由	-14233
眼	-14234
第	-14235
远	-14236
交	-14237
借	-14238
办	-14239
度	-14240
礼	-14241
部	-14242
5	-14243
思	-14244
海	-14245
足	-14246
辆	-14247
风	-14248
轻	-14249
雪	-14250
T	-14251
包	-14252
并	-14253
答	-14254
冷	-14255
划	-14256
员	-14257
备	-14258
干	-14259
费	-14260
保	-14261
其	-14262
咖	-14263
声	-14264
室	-14265
报	-14266
病	-14267
票	-14268
运	-14269
2	-14270
假	-14271
误	-14272
主	-14273
使	-14274
唱	-14275
啡	-14276
担	-14277
犯	-14278
画	-14279
课	-14280
达	-14281
除	-14282
巴	-14283
忘	-14284
算	-14285
院	-14286
休	-14287
刚	-14288
呢	-14289
容	-14290
树	-14291
河	-14292
程	-14293
食	-14294
份	-14295
哭	-14296
数	-14297
消	-14298
独	-14299
装	-14300
钢	-14301
亮	-14302
价	-14303
伦	-14304
元	-14305
合	-14306
支	-14307
散	-14308
烟	-14309
选	-14310
害	-14311
才	-14312
流	-14313
烦	-14314
猫	-14315
立	-14316
蛋	-14317
险	-14318
飞	-14319
鱼	-14320
店	-14321
敦	-14322
易	-14323
苹	-14324
体	-14325
弹	-14326
往	-14327
热	-14328
系	-14329
绝	-14330
续	-14331
城	-14332
懂	-14333
界	-14334
鞋	-14335
3	-14336
姐	-14337
富	-14338
察	-14339
封	-14340
抱	-14341
持	-14342
楼	-14343
窗	-14344
箱	-14345
纸	-14346
光	-14347
切	-14348
司	-14349
四	-14350
座	-14351
惯	-14352
求	-14353
红	-14354
谎	-14355
送	-14356
遇	-14357
黑	-14358
伤	-14359
否	-14360
坏	-14361
搭	-14362
杯	-14363
洲	-14364
者	-14365
靠	-14366
顾	-14367
典	-14368
努	-14369
台	-14370
差	-14371
惊	-14372
慢	-14373
棒	-14374
琴	-14375
至	-14376
赛	-14377
附	-14378
静	-14379
6	-14380
付	-14381
危	-14382
屋	-14383
指	-14384
根	-14385
漂	-14386
继	-14387
邮	-14388
麻	-14389
便	-14390
健	-14391
吸	-14392
曾	-14393
歉	-14394
此	-14395
转	-14396
值	-14397
厌	-14398
取	-14399
句	-14400
困	-14401
堂	-14402
密	-14403
板	-14404
查	-14405
止	-14406
讨	-14407
赢	-14408
首	-14409
义	-14410
倒	-14411
兄	-14412
夜	-14413
平	-14414
掉	-14415
注	-14416
痛	-14417
目	-14418
量	-14419
金	-14420
丢	-14421
二	-14422
偷	-14423
务	-14424
原	-14425
夫	-14426
寄	-14427
户	-14428
承	-14429
拍	-14430
汽	-14431
特	-14432
胜	-14433
证	-14434
似	-14435
修	-14436
冒	-14437
冰	-14438
北	-14439
康	-14440
护	-14441
杀	-14442
格	-14443
油	-14444
灯	-14445
糕	-14446
紧	-14447
纪	-14448
茶	-14449
虑	-14450
镜	-14451
随	-14452
预	-14453
与	-14454
八	-14455
内	-14456
刻	-14457
区	-14458
反	-14459
命	-14460
奶	-14461
幸	-14462
式	-14463
强	-14464
拒	-14465
按	-14466
料	-14467
牙	-14468
牛	-14469
累	-14470
船	-14471
菜	-14472
队	-14473
争	-14474
半	-14475
响	-14476
夏	-14477
或	-14478
烧	-14479
秘	-14480
街	-14481
订	-14482
责	-14483
代	-14484
右	-14485
守	-14486
擅	-14487
改	-14488
深	-14489
演	-14490
百	-14491
石	-14492
纽	-14493
脚	-14494
跳	-14495
释	-14496
铅	-14497
鸟	-14498
8	-14499
介	-14500
先	-14501
匙	-14502
厨	-14503
商	-14504
弄	-14505
忍	-14506
架	-14507
适	-14508
银	-14509
七	-14510
伞	-14511
又	-14512
奇	-14513
套	-14514
急	-14515
怪	-14516
换	-14517
敢	-14518
旧	-14519
楚	-14520
职	-14521
访	-14522
象	-14523
野	-14524
钥	-14525
阳	-14526
饿	-14527
4	-14528
乘	-14529
具	-14530
号	-14531
存	-14532
尔	-14533
微	-14534
性	-14535
拉	-14536
据	-14537
显	-14538
末	-14539
松	-14540
梦	-14541
汁	-14542
简	-14543
聚	-14544
观	-14545
超	-14546
越	-14547
醒	-14548
驶	-14549
驾	-14550
黎	-14551
举	-14552
依	-14553
品	-14554
啊	-14555
妻	-14556
宝	-14557
战	-14558
扫	-14559
断	-14560
椅	-14561
永	-14562
湖	-14563
爬	-14564
瓶	-14565
管	-14566
聪	-14567
肯	-14568
脑	-14569
设	-14570
造	-14571
阅	-14572
万	-14573
傻	-14574
共	-14575
况	-14576
卡	-14577
及	-14578
吉	-14579
呼	-14580
唯	-14581
块	-14582
墙	-14583
客	-14584
席	-14585
帽	-14586
底	-14587
朵	-14588
栋	-14589
澡	-14590
肉	-14591
节	-14592
赶	-14593
鬼	-14594
充	-14595
养	-14596
制	-14597
各	-14598
念	-14599
撞	-14600
暴	-14601
术	-14602
束	-14603
毛	-14604
沙	-14605
祖	-14606
神	-14607
科	-14608
糟	-14609
终	-14610
舒	-14611
落	-14612
集	-14613
骑	-14614
鸡	-14615
“	-14616
”	-14617
九	-14618
产	-14619
低	-14620
免	-14621
双	-14622
古	-14623
善	-14624
复	-14625
左	-14626
恐	-14627
挂	-14628
木	-14629
案	-14630
滑	-14631
睛	-14632
短	-14633
碰	-14634
缺	-14635
胡	-14636
萨	-14637
败	-14638
资	-14639
较	-14640
连	-14641
退	-14642
逃	-14643
7	-14644
众	-14645
伙	-14646
列	-14647
卖	-14648
历	-14649
址	-14650
威	-14651
弃	-14652
律	-14653
抓	-14654
旁	-14655
浪	-14656
温	-14657
社	-14658
线	-14659
统	-14660
罗	-14661
翻	-14662
聊	-14663
育	-14664
舞	-14665
药	-14666
衬	-14667
规	-14668
词	-14669
译	-14670
调	-14671
负	-14672
遍	-14673
邀	-14674
镇	-14675
闭	-14676
验	-14677
严	-14678
传	-14679
兰	-14680
冬	-14681
印	-14682
史	-14683
味	-14684
器	-14685
属	-14686
帐	-14687
广	-14688
德	-14689
戴	-14690
抽	-14691
暖	-14692
林	-14693
王	-14694
疑	-14695
福	-14696
精	-14697
细	-14698
联	-14699
衫	-14700
讶	-14701
贵	-14702
闻	-14703
领	-14704
乡	-14705
亚	-14706
供	-14707
倦	-14708
克	-14709
击	-14710
则	-14711
即	-14712
宁	-14713
布	-14714
志	-14715
怀	-14716
戏	-14717
戒	-14718
扔	-14719
择	-14720
排	-14721
政	-14722
暗	-14723
未	-14724
枪	-14725
欧	-14726
治	-14727
洋	-14728
熟	-14729
疯	-14730
盐	-14731
盒	-14732
示	-14733
私	-14734
签	-14735
罪	-14736
耐	-14737
背	-14738
致	-14739
苦	-14740
草	-14741
裙	-14742
诺	-14743
貌	-14744
辞	-14745
遗	-14746
醉	-14747
锁	-14748
际	-14749
震	-14750
顶	-14751
饮	-14752
且	-14753
令	-14754
俱	-14755
允	-14756
减	-14757
刷	-14758
勇	-14759
厅	-14760
呆	-14761
姊	-14762
娃	-14763
婴	-14764
导	-14765
局	-14766
幅	-14767
愉	-14768
拜	-14769
推	-14770
握	-14771
搬	-14772
景	-14773
村	-14774
桥	-14775
湿	-14776
灾	-14777
盖	-14778
码	-14779
破	-14780
租	-14781
突	-14782
筑	-14783
篮	-14784
类	-14785
练	-14786
脸	-14787
藏	-14788
载	-14789
迎	-14790
迷	-14791
递	-14792
邻	-14793
钓	-14794
项	-14795
骗	-14796
:	-14797
倍	-14798
千	-14799
姑	-14800
季	-14801
居	-14802
忠	-14803
怨	-14804
扰	-14805
投	-14806
控	-14807
救	-14808
敲	-14809
杂	-14810
李	-14811
极	-14812
检	-14813
橙	-14814
欠	-14815
毕	-14816
池	-14817
洞	-14818
渴	-14819
澳	-14820
激	-14821
煮	-14822
登	-14823
穷	-14824
群	-14825
艺	-14826
蠢	-14827
袋	-14828
遵	-14829
9	-14830
仔	-14831
偶	-14832
化	-14833
升	-14834
另	-14835
哈	-14836
售	-14837
啤	-14838
围	-14839
圆	-14840
寻	-14841
寿	-14842
延	-14843
恨	-14844
惑	-14845
斯	-14846
柳	-14847
测	-14848
滩	-14849
炸	-14850
猜	-14851
羞	-14852
臂	-14853
血	-14854
角	-14855
闲	-14856
阻	-14857
降	-14858
隐	-14859
颜	-14860
默	-14861
C	-14862
丈	-14863
互	-14864
伴	-14865
净	-14866
初	-14867
博	-14868
吓	-14869
嗜	-14870
嘴	-14871
噪	-14872
团	-14873
圣	-14874
宜	-14875
岛	-14876
巧	-14877
形	-14878
态	-14879
搞	-14880
摇	-14881
播	-14882
晨	-14883
某	-14884
毫	-14885
漫	-14886
爷	-14887
狸	-14888
玫	-14889
瑰	-14890
祝	-14891
称	-14892
绳	-14893
绿	-14894
脱	-14895
舅	-14896
讯	-14897
贝	-14898
赞	-14899
铁	-14900
铃	-14901
阿	-14902
零	-14903
雷	-14904
颗	-14905
龄	-14906
云	-14907
估	-14908
册	-14909
军	-14910
刀	-14911
刮	-14912
剪	-14913
压	-14914
坚	-14915
型	-14916
基	-14917
寒	-14918
庭	-14919
愚	-14920
憾	-14921
拥	-14922
捕	-14923
春	-14924
柜	-14925
款	-14926
民	-14927
源	-14928
灰	-14929
牌	-14930
狐	-14931
狱	-14932
盘	-14933
盯	-14934
研	-14935
祸	-14936
稍	-14937
粉	-14938
肩	-14939
胃	-14940
航	-14941
良	-14942
蛇	-14943
评	-14944
诚	-14945
财	-14946
货	-14947
购	-14948
速	-14949
阪	-14950
专	-14951
临	-14952
仅	-14953
佛	-14954
傲	-14955
农	-14956
南	-14957
卧	-14958
卷	-14959
吹	-14960
咬	-14961
嘲	-14962
坡	-14963
增	-14964
妒	-14965
姓	-14966
孤	-14967
寸	-14968
尊	-14969
尺	-14970
引	-14971
执	-14972
批	-14973
抵	-14974
挤	-14975
摩	-14976
敏	-14977
曲	-14978
权	-14979
棵	-14980
概	-14981
毁	-14982
毯	-14983
沉	-14984
浴	-14985
漆	-14986
癌	-14987
益	-14988
监	-14989
禁	-14990
究	-14991
籍	-14992
米	-14993
糖	-14994
耳	-14995
肥	-14996
腿	-14997
获	-14998
裤	-14999
诗	-15000
谅	-15001
豆	-15002
账	-15003
质	-15004
贴	-15005
踢	-15006
输	-15007
追	-15008
途	-15009
避	-15010
销	-15011
闹	-15012
防	-15013
顺	-15014
黄	-15015
D	-15016
乏	-15017
俄	-15018
兵	-15019
凉	-15020
匹	-15021
华	-15022
固	-15023
土	-15024
娶	-15025
嫉	-15026
尘	-15027
州	-15028
巨	-15029
庄	-15030
悉	-15031
悔	-15032
愈	-15033
折	-15034
招	-15035
损	-15036
探	-15037
携	-15038
朗	-15039
梯	-15040
棋	-15041
段	-15042
泪	-15043
渐	-15044
灭	-15045
烈	-15046
烤	-15047
状	-15048
猴	-15049
环	-15050
积	-15051
竟	-15052
筝	-15053
置	-15054
耻	-15055
脏	-15056
芝	-15057
营	-15058
蓝	-15059
诞	-15060
谋	-15061
赌	-15062
赏	-15063
赖	-15064
跌	-15065
踏	-15066
辣	-15067
迫	-15068
透	-15069
遭	-15070
酸	-15071
钮	-15072
饥	-15073
饱	-15074
饼	-15075
麦	-15076
丰	-15077
仍	-15078
优	-15079
伟	-15080
伯	-15081
余	-15082
兔	-15083
冲	-15084
剧	-15085
势	-15086
占	-15087
卫	-15088
却	-15089
厕	-15090
含	-15091
吵	-15092
喂	-15093
嘛	-15094
囚	-15095
堡	-15096
填	-15097
墨	-15098
姨	-15099
嫁	-15100
官	-15101
寓	-15102
射	-15103
展	-15104
库	-15105
废	-15106
归	-15107
录	-15108
彼	-15109
忽	-15110
恶	-15111
惹	-15112
托	-15113
抚	-15114
披	-15115
授	-15116
摄	-15117
撒	-15118
敌	-15119
既	-15120
暑	-15121
朝	-15122
染	-15123
标	-15124
桶	-15125
模	-15126
欲	-15127
洁	-15128
洽	-15129
济	-15130
淋	-15131
淡	-15132
溜	-15133
滚	-15134
灵	-15135
牢	-15136
率	-15137
玻	-15138
瑞	-15139
璃	-15140
申	-15141
皮	-15142
省	-15143
矮	-15144
碎	-15145
碗	-15146
粗	-15147
级	-15148
罚	-15149
羊	-15150
耍	-15151
股	-15152
胆	-15153
胖	-15154
般	-15155
艘	-15156
苍	-15157
苏	-15158
荣	-15159
萄	-15160
葡	-15161
蔬	-15162
补	-15163
袜	-15164
裁	-15165
覆	-15166
谣	-15167
豪	-15168
赚	-15169
踪	-15170
轮	-15171
辛	-15172
逮	-15173
隔	-15174
雄	-15175
露	-15176
香	-15177
%	-15178
井	-15179
亡	-15180
企	-15181
例	-15182
兼	-15183
冻	-15184
剩	-15185
副	-15186
勤	-15187
协	-15188
厂	-15189
厉	-15190
厚	-15191
咙	-15192
喉	-15193
嘿	-15194
塔	-15195
塘	-15196
塞	-15197
壁	-15198
夷	-15199
夹	-15200
奋	-15201
奏	-15202
委	-15203
婆	-15204
尝	-15205
屈	-15206
巾	-15207
幽	-15208
序	-15209
府	-15210
弱	-15211
彩	-15212
悲	-15213
慕	-15214
扑	-15215
抢	-15216
拖	-15217
插	-15218
摔	-15219
敬	-15220
斗	-15221
晴	-15222
智	-15223
森	-15224
横	-15225
欣	-15226
欺	-15227
武	-15228
毒	-15229
沿	-15230
泣	-15231
泽	-15232
浇	-15233
涨	-15234
滨	-15235
炎	-15236
燃	-15237
爆	-15238
版	-15239
田	-15240
疼	-15241
症	-15242
盛	-15243
睁	-15244
矩	-15245
砍	-15246
碟	-15247
秋	-15248
移	-15249
窃	-15250
章	-15251
策	-15252
素	-15253
绍	-15254
络	-15255
绩	-15256
羡	-15257
翰	-15258
胁	-15259
胶	-15260
腰	-15261
膀	-15262
虽	-15263
贺	-15264
贼	-15265
赤	-15266
躺	-15267
辜	-15268
违	-15269
迹	-15270
逐	-15271
铺	-15272
闯	-15273
阵	-15274
陷	-15275
雇	-15276
雾	-15277
魂	-15278
鼠	-15279
+	-15280
/	-15281
A	-15282
丁	-15283
乱	-15284
乳	-15285
享	-15286
伍	-15287
伸	-15288
侵	-15289
债	-15290
偿	-15291
删	-15292
判	-15293
劲	-15294
匆	-15295
叶	-15296
咳	-15297
啸	-15298
嗽	-15299
圾	-15300
垃	-15301
域	-15302
堵	-15303
壮	-15304
奖	-15305
妙	-15306
宣	-15307
宿	-15308
寂	-15309
尾	-15310
层	-15311
岩	-15312
怒	-15313
恢	-15314
悄	-15315
惜	-15316
惩	-15317
慎	-15318
懒	-15319
戚	-15320
扇	-15321
扮	-15322
拆	-15323
拐	-15324
拔	-15325
拼	-15326
挡	-15327
掌	-15328
摘	-15329
摸	-15330
擦	-15331
攻	-15332
效	-15333
族	-15334
映	-15335
普	-15336
替	-15337
材	-15338
柴	-15339
栏	-15340
榜	-15341
汇	-15342
汉	-15343
泡	-15344
泥	-15345
泰	-15346
洪	-15347
涉	-15348
港	-15349
潜	-15350
熊	-15351
瓜	-15352
甜	-15353
皆	-15354
税	-15355
窝	-15356
竞	-15357
端	-15358
符	-15359
簿	-15360
纯	-15361
组	-15362
绪	-15363
维	-15364
缸	-15365
翼	-15366
肺	-15367
胎	-15368
胞	-15369
脾	-15370
艰	-15371
莉	-15372
莎	-15373
薪	-15374
虎	-15375
虚	-15376
蚊	-15377
蛛	-15378
裕	-15379
裹	-15380
誓	-15381
训	-15382
详	-15383
贫	-15384
辨	-15385
闪	-15386
陌	-15387
限	-15388
隶	-15389
青	-15390
额	-15391
骄	-15392
骨	-15393
鼓	-15394
齿	-15395
$	-15396
(	-15397
)	-15398
U	-15399
丘	-15400
丝	-15401
乌	-15402
亿	-15403
仇	-15404
伏	-15405
俩	-15406
偏	-15407
兜	-15408
冥	-15409
凌	-15410
劝	-15411
劫	-15412
叮	-15413
吻	-15414
咱	-15415
哩	-15416
哲	-15417
唐	-15418
圈	-15419
坠	-15420
埃	-15421
境	-15422
奴	-15423
妇	-15424
姻	-15425
孕	-15426
审	-15427
宾	-15428
寝	-15429
币	-15430
帕	-15431
帘	-15432
帝	-15433
庙	-15434
弥	-15435
弯	-15436
征	-15437
径	-15438
忆	-15439
怖	-15440
怜	-15441
恋	-15442
患	-15443
惧	-15444
慰	-15445
懦	-15446
抬	-15447
拘	-15448
挣	-15449
捐	-15450
捡	-15451
搜	-15452
摆	-15453
摧	-15454
操	-15455
斥	-15456
旗	-15457
昂	-15458
晕	-15459
暂	-15460
构	-15461
栅	-15462
梨	-15463
植	-15464
橘	-15465
歧	-15466
氏	-15467
浓	-15468
液	-15469
淇	-15470
混	-15471
添	-15472
潮	-15473
炉	-15474
炒	-15475
烂	-15476
烹	-15477
熄	-15478
熨	-15479
爵	-15480
犬	-15481
猪	-15482
献	-15483
珠	-15484
略	-15485
瘦	-15486
盗	-15487
盲	-15488
眠	-15489
砸	-15490
础	-15491
硬	-15492
磁	-15493
秀	-15494
稀	-15495
稻	-15496
窄	-15497
童	-15498
笨	-15499
筱	-15500
篱	-15501
绑	-15502
绕	-15503
翁	-15504
耗	-15505
肃	-15506
肤	-15507
胳	-15508
腻	-15509
腾	-15510
膊	-15511
若	-15512
莓	-15513
董	-15514
葬	-15515
葱	-15516
薯	-15517
虫	-15518
蛙	-15519
蜂	-15520
蜘	-15521
蝇	-15522
袖	-15523
袭	-15524
览	-15525
触	-15526
誉	-15527
诱	-15528
谓	-15529
谨	-15530
赠	-15531
赴	-15532
趁	-15533
踩	-15534
躲	-15535
辈	-15536
辑	-15537
辩	-15538
述	-15539
逆	-15540
逗	-15541
逛	-15542
逻	-15543
逼	-15544
郊	-15545
郎	-15546
配	-15547
酪	-15548
酱	-15549
酷	-15550
采	-15551
针	-15552
钻	-15553
阱	-15554
陆	-15555
陪	-15556
障	-15557
靴	-15558
韩	-15559
页	-15560
骂	-15561
魔	-15562
鲁	-15563
鲜	-15564
龙	-15565
F	-15566
I	-15567
K	-15568
M	-15569
N	-15570
O	-15571
X	-15572
[	-15573
]	-15574
’	-15575
「	-15576
」	-15577
丑	-15578
丛	-15579
丧	-15580
串	-15581
丹	-15582
予	-15583
亭	-15584
仆	-15585
仙	-15586
仪	-15587
佩	-15588
佳	-15589
侄	-15590
俊	-15591
倔	-15592
倚	-15593
倾	-15594
傍	-15595
僵	-15596
冠	-15597
凡	-15598
凶	-15599
刑	-15600
创	-15601
刹	-15602
勉	-15603
匠	-15604
卜	-15605
叉	-15606
叛	-15607
叠	-15608
召	-15609
吼	-15610
哑	-15611
哺	-15612
唇	-15613
唬	-15614
啥	-15615
啼	-15616
喊	-15617
喔	-15618
喻	-15619
嗓	-15620
嗨	-15621
嘱	-15622
坦	-15623
垒	-15624
埋	-15625
塑	-15626
墓	-15627
壳	-15628
夕	-15629
央	-15630
奉	-15631
妆	-15632
妥	-15633
娘	-15634
婶	-15635
孔	-15636
宽	-15637
寞	-15638
尖	-15639
尚	-15640
尼	-15641
屏	-15642
履	-15643
岸	-15644
峰	-15645
崎	-15646
帅	-15647
帆	-15648
幕	-15649
幚	-15650
幼	-15651
庆	-15652
异	-15653
弊	-15654
彻	-15655
御	-15656
循	-15657
忌	-15658
忧	-15659
恒	-15660
恩	-15661
恭	-15662
悦	-15663
悬	-15664
惠	-15665
愤	-15666
戳	-15667
扣	-15668
扭	-15669
扶	-15670
拯	-15671
拳	-15672
拷	-15673
挑	-15674
挟	-15675
挪	-15676
挺	-15677
捉	-15678
捷	-15679
搁	-15680
撑	-15681
撕	-15682
施	-15683
旬	-15684
昔	-15685
杆	-15686
杉	-15687
杖	-15688
杰	-15689
枝	-15690
柔	-15691
桃	-15692
椒	-15693
榨	-15694
樱	-15695
橱	-15696
歇	-15697
殖	-15698
汗	-15699
污	-15700
沏	-15701
沟	-15702
沸	-15703
泊	-15704
泛	-15705
洛	-15706
津	-15707
浅	-15708
涂	-15709
淹	-15710
渡	-15711
溪	-15712
滴	-15713
潺	-15714
澄	-15715
炼	-15716
烫	-15717
焰	-15718
煤	-15719
熬	-15720
燕	-15721
牡	-15722
牧	-15723
牵	-15724
犹	-15725
狮	-15726
猎	-15727
瓣	-15728
疗	-15729
疚	-15730
疤	-15731
疲	-15732
疾	-15733
痴	-15734
皂	-15735
盏	-15736
盟	-15737
瞎	-15738
瞒	-15739
瞥	-15740
瞧	-15741
矶	-15742
磅	-15743
祇	-15744
稣	-15745
竹	-15746
笆	-15747
笼	-15748
筋	-15749
筷	-15750
筹	-15751
箭	-15752
篷	-15753
繁	-15754
纠	-15755
纹	-15756
绘	-15757
绵	-15758
绽	-15759
缉	-15760
缓	-15761
编	-15762
缝	-15763
缩	-15764
缴	-15765
罐	-15766
罢	-15767
耶	-15768
耽	-15769
聋	-15770
肠	-15771
胸	-15772
脖	-15773
膝	-15774
舌	-15775
苗	-15776
茄	-15777
荒	-15778
荫	-15779
荷	-15780
菲	-15781
萝	-15782
蒸	-15783
蕉	-15784
薄	-15785
蛎	-15786
蜜	-15787
融	-15788
蟀	-15789
蟋	-15790
裂	-15791
裸	-15792
诊	-15793
谊	-15794
谜	-15795
谷	-15796
豫	-15797
贷	-15798
贸	-15799
赔	-15800
距	-15801
轨	-15802
辗	-15803
逊	-15804
遛	-15805
鄙	-15806
醺	-15807
鉴	-15808
锅	-15809
锈	-15810
锋	-15811
锯	-15812
锻	-15813
镑	-15814
阁	-15815
阴	-15816
阶	-15817
隧	-15818
雕	-15819
饪	-15820
饰	-15821
馅	-15822
驻	-15823
魁	-15824
鲑	-15825
鲸	-15826
鹉	-15827
鹦	-15828
鼻	-15829
齐	-15830
B	-15831
P	-15832
·	-15833
‘	-15834
㥃	-15835
丐	-15836
乔	-15837
乞	-15838
亏	-15839
仁	-15840
仑	-15841
仓	-15842
仗	-15843
仰	-15844
仲	-15845
仿	-15846
伊	-15847
伐	-15848
伪	-15849
伫	-15850
佬	-15851
侈	-15852
侍	-15853
侦	-15854
侧	-15855
俭	-15856
倡	-15857
储	-15858
催	-15859
儥	-15860
兆	-15861
兑	-15862
党	-15863
兽	-15864
兿	-15865
冈	-15866
凑	-15867
凝	-15868
凳	-15869
函	-15870
券	-15871
刺	-15872
剂	-15873
剃	-15874
削	-15875
劈	-15876
劣	-15877
励	-15878
劳	-15879
勺	-15880
匪	-15881
卢	-15882
卵	-15883
厘	-15884
县	-15885
叟	-15886
吐	-15887
君	-15888
吝	-15889
吞	-15890
吟	-15891
吠	-15892
呎	-15893
呻	-15894
咀	-15895
咆	-15896
咎	-15897
咨	-15898
咸	-15899
咽	-15900
哄	-15901
哇	-15902
哦	-15903
哨	-15904
哮	-15905
唔	-15906
啃	-15907
啜	-15908
啬	-15909
喘	-15910
喷	-15911
嗅	-15912
嗝	-15913
嘘	-15914
噩	-15915
嚼	-15916
囓	-15917
囱	-15918
坂	-15919
均	-15920
坞	-15921
坟	-15922
垂	-15923
垫	-15924
墟	-15925
壤	-15926
夸	-15927
奈	-15928
契	-15929
奔	-15930
奢	-15931
奥	-15932
妄	-15933
妨	-15934
姿	-15935
婉	-15936
婪	-15937
媛	-15938
嫩	-15939
孙	-15940
宇	-15941
宙	-15942
宠	-15943
宫	-15944
宴	-15945
宵	-15946
尤	-15947
尬	-15948
尴	-15949
尸	-15950
届	-15951
屑	-15952
岳	-15953
峡	-15954
崩	-15955
巅	-15956
巢	-15957
巫	-15958
幌	-15959
幢	-15960
幺	-15961
幻	-15962
庇	-15963
庞	-15964
廉	-15965
弓	-15966
弦	-15967
彗	-15968
怂	-15969
怠	-15970
怯	-15971
恕	-15972
恰	-15973
恳	-15974
恼	-15975
恿	-15976
惕	-15977
惭	-15978
惰	-15979
愁	-15980
愧	-15981
慈	-15982
慌	-15983
慧	-15984
慨	-15985
慷	-15986
扛	-15987
扩	-15988
扬	-15989
扯	-15990
抖	-15991
抛	-15992
抹	-15993
押	-15994
拄	-15995
